// Auto-generated FP16 weights header for model TRN
#ifndef TRN_H
#define TRN_H

#include <stdint.h>

// TRN_conv1d_kernel
const unsigned short TRN_conv1d_kernel_data[] = {
  0xac39u, 0x324cu, 0xad93u, 0xb490u, 0xafdbu, 0x3256u, 0xb4b6u, 0x2f11u, 0xad00u, 0x325fu, 0xac72u, 0xb269u, 0xb2d9u, 0x23f2u, 0xab93u, 0xae1cu,
  0x3433u, 0x28bdu, 0xad1au, 0x2f58u, 0x3402u, 0xb42du, 0x29a2u, 0xaab7u, 0xb309u, 0xad81u, 0xa8e6u, 0x30eeu, 0xb39cu, 0xaa56u, 0x33b6u, 0xb44du,
  0xafa3u, 0xadbcu, 0x3046u, 0xb473u, 0xad20u, 0x30d5u, 0x3182u, 0x3403u, 0x3420u, 0xaee3u, 0x2b2au, 0x31e0u, 0x2cf5u, 0x30e5u, 0xb072u, 0x347eu,
  0x31ceu, 0x330au, 0xa904u, 0x26bfu, 0x344du, 0xb239u, 0x342cu, 0xae6eu, 0x320au, 0x2c6eu, 0x2f6fu, 0xa63au, 0xaae6u, 0xb0fcu, 0x30afu, 0xa4b8u,
};
const unsigned int TRN_conv1d_kernel_len = 64u;

// TRN_conv1d_bias
const unsigned short TRN_conv1d_bias_data[] = {
  0x0000u, 0xa07au, 0x9faeu, 0x0000u, 0x0000u, 0x9514u, 0xa00eu, 0xa880u, 0xa741u, 0xa89au, 0x9e26u, 0x24c5u, 0x99c7u, 0xa4f0u, 0x0000u, 0xa863u,
  0xa887u, 0xa894u, 0x0000u, 0xa88fu, 0xa388u, 0x0000u, 0x0db8u, 0x0000u, 0x9edbu, 0x9e92u, 0xa841u, 0xa925u, 0x0000u, 0x0000u, 0x9090u, 0x0000u,
};
const unsigned int TRN_conv1d_bias_len = 32u;

// TRN_conv1d_1_kernel
const unsigned short TRN_conv1d_1_kernel_data[] = {
  0xb12au, 0xa442u, 0x2c67u, 0x9bbbu, 0xaf9au, 0xafb0u, 0x3020u, 0x2e58u, 0xb04au, 0xb143u, 0xa4a9u, 0xad9cu, 0x2302u, 0xafcbu, 0x260bu, 0xafa2u,
  0x1decu, 0xab77u, 0xa303u, 0x2868u, 0xb05eu, 0x30d5u, 0xa8bau, 0x9a3eu, 0xaf8eu, 0xa5b9u, 0x97b1u, 0x3029u, 0xb0e6u, 0x311bu, 0xa961u, 0x3045u,
  0xb14du, 0x306au, 0x2d95u, 0x2453u, 0x2d14u, 0xa46cu, 0x2605u, 0x2f53u, 0x15c4u, 0x2ddeu, 0x2cf9u, 0x29d9u, 0x316au, 0xad09u, 0xa431u, 0xafb6u,
  0xafd8u, 0x2dbbu, 0xa3dfu, 0xadc0u, 0x2ed8u, 0xa959u, 0x313au, 0xaf02u, 0x2936u, 0xae46u, 0xa6ecu, 0xa7afu, 0x2b75u, 0xa7ddu, 0xae60u, 0xad21u,
  0xb04eu, 0x2ba6u, 0xab93u, 0xa5feu, 0xb10au, 0xaa63u, 0xaed0u, 0xace0u, 0x2108u, 0x3105u, 0xb1a8u, 0xac87u, 0xad24u, 0x29f9u, 0x2eeau, 0xa899u,
  0x257eu, 0xa922u, 0x2e6du, 0x9fccu, 0x3090u, 0x30c2u, 0x230au, 0x28e6u, 0xaebbu, 0x2e55u, 0xab68u, 0xa9fdu, 0xa995u, 0x30fdu, 0x3123u, 0x3062u,
  0x30fdu, 0xae51u, 0x1494u, 0x24d9u, 0xb1c7u, 0xac65u, 0x2f17u, 0xa83bu, 0xab82u, 0x2910u, 0x2cddu, 0xad54u, 0xa8e8u, 0xa171u, 0x9c1bu, 0x2e57u,
  0x3091u, 0xb129u, 0xb032u, 0xa0dbu, 0x3049u, 0x29d7u, 0x3048u, 0x3099u, 0xb116u, 0x2cdcu, 0xb0d1u, 0x2b88u, 0xb0dau, 0x253fu, 0x2e44u, 0xb19fu,
  0xb145u, 0x1951u, 0xa92du, 0x2ceeu, 0x2ff8u, 0x3127u, 0xaabau, 0x263cu, 0x25aeu, 0xa33bu, 0xb06cu, 0xae75u, 0xb20eu, 0xb17au, 0x3047u, 0x225bu,
  0x2f2cu, 0x2db4u, 0xa110u, 0xac3fu, 0xafa0u, 0x2a0cu, 0x2d08u, 0xacb5u, 0xaf8au, 0x2e2au, 0x2b58u, 0x1790u, 0xaa27u, 0x3052u, 0xa5d9u, 0x29b8u,
  0x3072u, 0xad18u, 0xae56u, 0x2776u, 0x307du, 0x308fu, 0xa888u, 0xab2eu, 0x259du, 0x31a5u, 0xae94u, 0xaf0eu, 0x2cb1u, 0xb021u, 0x2574u, 0x9f6bu,
  0x2aa0u, 0x2da1u, 0x30c6u, 0x2d13u, 0x2cdfu, 0x2fd8u, 0xad1fu, 0x2fa0u, 0x3024u, 0x2c3bu, 0xacaau, 0xafacu, 0x2db1u, 0x2e04u, 0x30f1u, 0x9c4bu,
  0x2eebu, 0x2829u, 0x2c6cu, 0xb149u, 0x2501u, 0x3196u, 0xaf75u, 0x2892u, 0xad5bu, 0xaac4u, 0x2fa8u, 0x3029u, 0x2a94u, 0xb003u, 0x2cd5u, 0x3175u,
  0xb0f7u, 0x2ae1u, 0x29a2u, 0x1e31u, 0xb124u, 0xa381u, 0xaf17u, 0x2acdu, 0x2e67u, 0x3161u, 0xaff3u, 0x2d31u, 0xa699u, 0x2bcbu, 0xa9a3u, 0xa8aau,
  0xab15u, 0x2944u, 0x3007u, 0xa904u, 0x2657u, 0x2c5au, 0x2a8bu, 0xaeeau, 0x966du, 0xb108u, 0xac37u, 0x2f6au, 0xa89bu, 0xb0e4u, 0x2a16u, 0xacd9u,
  0xadf2u, 0xae63u, 0x30fau, 0x30eeu, 0xac24u, 0xb081u, 0x2d32u, 0xb193u, 0x300cu, 0xa8dcu, 0xa5d4u, 0xae69u, 0xae8bu, 0xb0b6u, 0x2f98u, 0x315du,
  0xaf67u, 0xafc5u, 0x2944u, 0xb15du, 0xa181u, 0xb160u, 0x2ed2u, 0x3132u, 0xb0a7u, 0x2a3bu, 0x2f28u, 0x2f35u, 0x25bfu, 0x2422u, 0xb056u, 0x2940u,
  0x30eau, 0x27c4u, 0xad9cu, 0x2bc8u, 0x299au, 0xa637u, 0xb0f5u, 0xb13cu, 0x28d5u, 0xac89u, 0x2de1u, 0xb192u, 0xb05au, 0x3120u, 0x2867u, 0x2d8bu,
  0xa427u, 0x2cf7u, 0x2c04u, 0x316bu, 0xaafeu, 0xb109u, 0xb198u, 0xb0b2u, 0xb06eu, 0x2dd2u, 0x31a1u, 0xab70u, 0x2c40u, 0xb0a7u, 0x2f56u, 0x2c02u,
  0x2eb6u, 0xac3eu, 0xac71u, 0x24dfu, 0x2a46u, 0x300au, 0x881au, 0xadeeu, 0xa4a3u, 0xb039u, 0x1d49u, 0xa67cu, 0x25c4u, 0x30d6u, 0xa859u, 0x9960u,
  0xaf1du, 0x2e28u, 0x2a4au, 0x3084u, 0xaebfu, 0xaeb8u, 0x2c30u, 0x2b4au, 0xabc9u, 0xb084u, 0xa9bau, 0x3026u, 0x24e7u, 0xb108u, 0xb0adu, 0x30b0u,
  0x922cu, 0xae7cu, 0x2e01u, 0xa657u, 0xaf5bu, 0xb0e1u, 0x30deu, 0x2c1du, 0x285au, 0x2de6u, 0xb186u, 0x2d45u, 0x24b8u, 0xb0e4u, 0xa809u, 0xa922u,
  0x9fceu, 0x1f28u, 0xadfeu, 0x3037u, 0xab2cu, 0xaf3du, 0x2befu, 0xae04u, 0xa9d5u, 0x2abbu, 0xafacu, 0xb022u, 0x2c39u, 0x310fu, 0xafd2u, 0x2a3du,
  0xb06du, 0xb016u, 0xaf68u, 0xb171u, 0x3004u, 0xb16cu, 0xae95u, 0x301cu, 0xb1f7u, 0x2e76u, 0xa9ffu, 0xafceu, 0x3055u, 0xb083u, 0x2cddu, 0x2f7fu,
  0x3072u, 0x2f68u, 0xb08bu, 0x99b9u, 0xb1c3u, 0x284cu, 0x3092u, 0xa75du, 0x2c98u, 0xacc6u, 0x2f3au, 0x2989u, 0x2877u, 0x2f79u, 0xb19fu, 0xac75u,
  0x3062u, 0xa5fbu, 0xa378u, 0xafb4u, 0x2a26u, 0xaa2au, 0xaff7u, 0xa850u, 0xb047u, 0x2c71u, 0x2f79u, 0xa80du, 0x2c3eu, 0x2639u, 0x218eu, 0xb101u,
  0xad98u, 0xaf97u, 0xaa85u, 0xb0dau, 0xaf2bu, 0xb03eu, 0x2ce0u, 0xaffau, 0x9b50u, 0xb0d6u, 0x29bau, 0xad06u, 0xa5e3u, 0x306cu, 0x313cu, 0xa9afu,
  0xaf15u, 0x2e24u, 0x2e54u, 0xa788u, 0x1e43u, 0x2427u, 0xb07eu, 0x314du, 0xab24u, 0x2d91u, 0xb089u, 0x2cbdu, 0x3083u, 0xadd1u, 0x2c00u, 0xae46u,
  0x2876u, 0xaef7u, 0xaf03u, 0xb1e5u, 0x2549u, 0x2dddu, 0xa5d7u, 0xb159u, 0x2583u, 0xa6c8u, 0x3030u, 0xa87cu, 0x2b78u, 0xaa28u, 0x2c91u, 0x24f9u,
  0xaeb1u, 0x2e36u, 0x2c3eu, 0x2d50u, 0xad7cu, 0x2704u, 0xad04u, 0xab51u, 0xaa9fu, 0x9185u, 0x2e42u, 0xab65u, 0xa892u, 0x2944u, 0x2419u, 0xb139u,
  0xa8c3u, 0x314bu, 0xa137u, 0xaa64u, 0x2adfu, 0xb0cfu, 0xb126u, 0xac94u, 0xaa85u, 0xb18au, 0x2ee2u, 0x30ccu, 0x20d3u, 0xb0f4u, 0x303eu, 0xab9bu,
  0x2698u, 0xaa5eu, 0xac4bu, 0xa70du, 0x2df7u, 0xaecfu, 0x2e55u, 0x2059u, 0xb036u, 0xaca8u, 0xb0a1u, 0xb1c2u, 0xad14u, 0x9ad0u, 0xadccu, 0xb14cu,
  0xa977u, 0xad43u, 0xb0dcu, 0x23dcu, 0xb106u, 0xae5bu, 0xa6b4u, 0x2f4bu, 0x2c8au, 0x3127u, 0x2ba3u, 0xb258u, 0x3065u, 0x3189u, 0xada7u, 0x2ee3u,
  0x264bu, 0x30f8u, 0xa90cu, 0x2bfeu, 0xae08u, 0x3033u, 0x1fe8u, 0x2cdfu, 0xb12du, 0xafabu, 0x9a43u, 0x27e6u, 0xb0cdu, 0x3062u, 0xb038u, 0x2a99u,
  0x2f62u, 0xaea2u, 0xb0a6u, 0x3164u, 0x240au, 0x299du, 0x2f2cu, 0xa9ffu, 0x2a1du, 0xaddau, 0x2190u, 0x30bau, 0xaf3fu, 0xaa50u, 0xa8feu, 0x30bfu,
  0xaa16u, 0xac55u, 0x2c97u, 0x23c1u, 0x3008u, 0x2ca0u, 0xa7f5u, 0xb202u, 0x308du, 0x2f5fu, 0x3068u, 0x2ba0u, 0x2c50u, 0xaeaeu, 0x2f3bu, 0x30d1u,
  0xb04eu, 0xb0aeu, 0x26d4u, 0x2d77u, 0x30fcu, 0xa94au, 0x2e62u, 0x29f4u, 0x2f16u, 0x2d1fu, 0x3064u, 0x2e31u, 0x2f82u, 0x2c44u, 0xa4d9u, 0xabebu,
  0xb1c6u, 0x30feu, 0x2451u, 0xac16u, 0x2f69u, 0x2a38u, 0x307fu, 0xaeadu, 0x30f6u, 0xae1cu, 0xaf44u, 0x30beu, 0x2e80u, 0xad66u, 0xa9b9u, 0xa811u,
  0xa06fu, 0x3139u, 0x30e2u, 0xac0du, 0x30adu, 0x8417u, 0xad32u, 0xb144u, 0xb028u, 0x3193u, 0x30a6u, 0x2a07u, 0x1d32u, 0x265fu, 0x3082u, 0x270bu,
  0xb056u, 0x2a74u, 0xa83au, 0xb0c7u, 0xb058u, 0xb077u, 0x3192u, 0x30c0u, 0x2828u, 0xa2fcu, 0x2c34u, 0xb12bu, 0x0b14u, 0xaf1fu, 0x2a11u, 0x25c9u,
  0x2c95u, 0x30eeu, 0xab3du, 0x22f2u, 0xaf85u, 0x3118u, 0xaa8du, 0xaf98u, 0x2f84u, 0xa866u, 0xb188u, 0xaffeu, 0xa4d0u, 0x2cacu, 0x2cabu, 0x2d3au,
  0xb111u, 0x2e2du, 0xaf25u, 0x2acfu, 0xa9f3u, 0x1df8u, 0xabccu, 0x2f4cu, 0xb053u, 0x2bfau, 0x2a42u, 0x29bfu, 0xb178u, 0xaa64u, 0x26b7u, 0xaeb1u,
  0x9658u, 0xa5feu, 0xae24u, 0x2d2fu, 0x1568u, 0xb135u, 0x2982u, 0xa9afu, 0xabeeu, 0x2da7u, 0xadfdu, 0xb01bu, 0x3020u, 0x30beu, 0xad98u, 0xac9bu,
  0xad34u, 0xb0dfu, 0x2e60u, 0x2d64u, 0xa8efu, 0xb06bu, 0xa556u, 0x2e96u, 0x2976u, 0x3078u, 0x3017u, 0x3021u, 0x2d9eu, 0x2fdeu, 0xb01du, 0x2c6au,
  0x2719u, 0x2d25u, 0xb1efu, 0xad60u, 0xa94cu, 0x2c45u, 0xb11bu, 0x31fau, 0xb0cau, 0x2d4au, 0xae0fu, 0x3016u, 0xb104u, 0x2aabu, 0x310bu, 0xa06bu,
  0xaf71u, 0xb0c4u, 0xb104u, 0xadadu, 0xaf28u, 0x3047u, 0xb0b2u, 0x3095u, 0xae63u, 0xb013u, 0x2a74u, 0xb1bfu, 0x2ab1u, 0xa88bu, 0x307bu, 0x2e1du,
  0x30b7u, 0x96b0u, 0x2d20u, 0xa6a8u, 0xb00bu, 0x2ee1u, 0xae97u, 0xa81au, 0xaf8du, 0xb13au, 0xaf6cu, 0x2d62u, 0xac8eu, 0x2ee3u, 0x9a6bu, 0xa415u,
  0xa7b3u, 0x2d0au, 0xa3c5u, 0x28fbu, 0xb097u, 0xb182u, 0x2b33u, 0xb05au, 0xafd0u, 0x3132u, 0x2f40u, 0x2c43u, 0x3243u, 0xadbfu, 0xa969u, 0x27bcu,
  0x307fu, 0xad3eu, 0x16e7u, 0x2d3au, 0xadfcu, 0x188fu, 0x3179u, 0x2a3cu, 0xb11du, 0xaef4u, 0xb10du, 0x2904u, 0xa84eu, 0x3159u, 0x2fd1u, 0xa0b8u,
  0xacadu, 0x2af7u, 0xabd9u, 0x3164u, 0x2e7cu, 0xb092u, 0xaef3u, 0x2ce9u, 0x3106u, 0xac73u, 0x31a7u, 0xae5au, 0x2555u, 0x2c8au, 0x310du, 0x2a16u,
  0x2a15u, 0xadefu, 0xb0bdu, 0x301du, 0x2cbeu, 0xa9d8u, 0x2a64u, 0x29b9u, 0x2b89u, 0xad60u, 0xadaeu, 0x2d6bu, 0xad66u, 0x28a9u, 0xaec5u, 0x312du,
  0x302fu, 0xb192u, 0x314du, 0xa924u, 0x315fu, 0x2e94u, 0xa7e0u, 0x9d19u, 0xaa88u, 0x200du, 0xa988u, 0x270du, 0xad51u, 0x2730u, 0x2f3eu, 0x3096u,
  0xb0c0u, 0xb075u, 0xabecu, 0x310au, 0x98adu, 0x236au, 0xaf63u, 0x2df5u, 0x2f5cu, 0xaedfu, 0x302bu, 0xaec5u, 0xa2fdu, 0x2a50u, 0xb11cu, 0x304cu,
  0xb1a0u, 0xb10fu, 0xb0c1u, 0xae44u, 0x3125u, 0xaaf6u, 0xb1c3u, 0xae83u, 0xb08au, 0xaa17u, 0xb07fu, 0x2c9fu, 0x2c61u, 0x2f3du, 0x2dacu, 0xad8fu,
  0x2415u, 0xb04cu, 0x29e0u, 0xadeeu, 0x315eu, 0xb05cu, 0x2ae7u, 0x272bu, 0x2486u, 0xb145u, 0x2dc2u, 0x2920u, 0xa770u, 0xad86u, 0xacdeu, 0x2ca9u,
  0x2a5cu, 0xb09fu, 0x2dbfu, 0xac49u, 0x2aa4u, 0x2f78u, 0xaf04u, 0xab42u, 0xaf0du, 0x29d0u, 0xa8dau, 0xa92eu, 0x30d7u, 0xb1eeu, 0xac9bu, 0xae92u,
  0x28a6u, 0xb0fcu, 0x3175u, 0x30b0u, 0x3069u, 0xb086u, 0x2f50u, 0x3010u, 0x2fd2u, 0x2fd1u, 0xaab2u, 0xaef7u, 0xa77eu, 0xb123u, 0xa376u, 0x2e23u,
  0x2c9au, 0xb096u, 0xaff7u, 0xb0e0u, 0xa5aeu, 0x2decu, 0x30e3u, 0xa5bau, 0xaef3u, 0xa598u, 0x2906u, 0xb19bu, 0xadb5u, 0x2ef0u, 0xaef9u, 0x309au,
  0x3098u, 0xb098u, 0xa08au, 0xb188u, 0xa0c7u, 0x2db6u, 0x318du, 0x2ea7u, 0x2fb7u, 0xa815u, 0xaf35u, 0xaa11u, 0x2d41u, 0x24b0u, 0x25c9u, 0x2d65u,
  0x2b99u, 0xae40u, 0x3110u, 0x30dbu, 0x2a8au, 0xa67au, 0x3007u, 0x3071u, 0xb141u, 0xafe1u, 0x2ebdu, 0xaf50u, 0x1e0du, 0xaddau, 0x2952u, 0xa72du,
  0x266fu, 0x303fu, 0xb14bu, 0x2b79u, 0xaf9eu, 0x2c0bu, 0xb07fu, 0xa7b4u, 0x2935u, 0xacf1u, 0xad59u, 0xaf88u, 0x3072u, 0xb0b4u, 0x2cc4u, 0xa574u,
  0x2eceu, 0x313fu, 0xa76bu, 0x3055u, 0x30c5u, 0xaf27u, 0xb1b8u, 0x3165u, 0x2620u, 0xada3u, 0x2c5fu, 0xacc5u, 0xb09fu, 0xa65au, 0x31a6u, 0x2ef5u,
  0x2e84u, 0xacbdu, 0x2d3cu, 0x2e97u, 0xb176u, 0x286du, 0xb1eau, 0xb06du, 0xaec1u, 0x3124u, 0xb012u, 0x2f7au, 0x308bu, 0xaef6u, 0x9d27u, 0x3056u,
  0xaabeu, 0xacc8u, 0x3183u, 0xb222u, 0x2227u, 0xac65u, 0xb0c5u, 0x2defu, 0x2ab4u, 0x273bu, 0xabd9u, 0xa407u, 0xa8d4u, 0x1f8au, 0xaca8u, 0x26c8u,
  0x2b65u, 0x2e91u, 0xad6fu, 0x300fu, 0xae4cu, 0x955fu, 0x2b80u, 0x2a32u, 0x3061u, 0xaa87u, 0xa781u, 0xb0beu, 0xb1ceu, 0xac00u, 0xabf4u, 0xafecu,
  0x2c9bu, 0x2d8au, 0xa882u, 0x1e82u, 0xab24u, 0xb181u, 0xaf47u, 0xac8cu, 0xb14du, 0x2ea8u, 0x2db5u, 0x2c18u, 0xaec3u, 0xb0d8u, 0xb062u, 0xaecfu,
  0xb05eu, 0xac7fu, 0x24e1u, 0xb192u, 0x2201u, 0x2dfcu, 0xb207u, 0xa674u, 0x2fbfu, 0xac3eu, 0x30cfu, 0xae82u, 0xa50cu, 0xaf32u, 0x27bau, 0x2e4bu,
  0x2d04u, 0xb0a5u, 0x2bdfu, 0x2ac0u, 0x305du, 0x2463u, 0xabd4u, 0xb0b3u, 0x2f21u, 0xafb3u, 0x24beu, 0x3150u, 0x2e05u, 0xb0b1u, 0x2e62u, 0xaeacu,
  0xaa89u, 0x2ccau, 0x227du, 0xae97u, 0x312cu, 0xad16u, 0xa7dcu, 0x2d6fu, 0x2e6eu, 0xa259u, 0x2d83u, 0xab5au, 0x26bbu, 0x9ac8u, 0x1a32u, 0x3159u,
  0xb07du, 0x30cbu, 0xab8au, 0xb16fu, 0x3051u, 0x3037u, 0x2e6fu, 0x143bu, 0x30a6u, 0xaf18u, 0x3027u, 0x2c38u, 0xa61cu, 0x2475u, 0xace1u, 0x2e21u,
  0x2d8du, 0xa042u, 0x2eceu, 0xabf9u, 0x3001u, 0xb101u, 0x280bu, 0xa928u, 0xa840u, 0x3150u, 0x25edu, 0x30d9u, 0xaa2bu, 0xa6edu, 0xaeacu, 0xb1dbu,
  0x2d4bu, 0xb097u, 0xaec4u, 0xa9c7u, 0x2f11u, 0x2676u, 0x9f96u, 0xb112u, 0x301cu, 0x2e5du, 0xa5e7u, 0x2f07u, 0x28e4u, 0xab7fu, 0xaf75u, 0xa85fu,
  0xaf08u, 0x2da0u, 0x2bc5u, 0xacb0u, 0xa07bu, 0x2befu, 0x3108u, 0xac5au, 0xa10fu, 0x312bu, 0x265cu, 0x2c0au, 0xb18du, 0x2c3bu, 0xad9du, 0x25abu,
  0x278bu, 0x2cf9u, 0xa9d6u, 0x99acu, 0x1da4u, 0xa4ebu, 0xa4c1u, 0xb16cu, 0xa480u, 0xa925u, 0xae66u, 0xab36u, 0xa639u, 0xb149u, 0x284au, 0x2f9cu,
  0xafa4u, 0x3039u, 0x3120u, 0x202au, 0x3154u, 0x2b1cu, 0xb044u, 0x27bcu, 0x316cu, 0xadecu, 0x2d40u, 0x2f12u, 0xa56au, 0x3093u, 0x265au, 0x2a44u,
  0xae65u, 0x30b7u, 0xa8b8u, 0x310bu, 0x2c3fu, 0xb165u, 0xaab4u, 0x3095u, 0x252au, 0x2e07u, 0x2b27u, 0x2f3bu, 0x3193u, 0xac43u, 0xabf5u, 0x299cu,
  0xada3u, 0xb06cu, 0x1ce7u, 0x2ff4u, 0xaaa6u, 0xa036u, 0x306au, 0x30c9u, 0xaa7au, 0xa8a8u, 0x3088u, 0x3165u, 0xa281u, 0xafb0u, 0xab61u, 0x26adu,
  0x2504u, 0x999du, 0x2c52u, 0x30b4u, 0x2cffu, 0x2b57u, 0x2b1du, 0x2de7u, 0xaf34u, 0x9ce9u, 0x2e58u, 0xace2u, 0xa7bbu, 0x2a41u, 0x2e62u, 0xa6a4u,
  0xb031u, 0x2486u, 0xa62fu, 0x24f3u, 0x30aau, 0xa8e7u, 0x9dc4u, 0xa68bu, 0xb085u, 0xb0f5u, 0xacc1u, 0x23bbu, 0xa8e7u, 0xae07u, 0xacaau, 0xb187u,
  0xb087u, 0xae98u, 0xb0feu, 0xa291u, 0x248cu, 0x186bu, 0xacc6u, 0xa02au, 0x9472u, 0x312cu, 0x311du, 0xaee4u, 0xb0f6u, 0x2dddu, 0x2d06u, 0xa0d2u,
  0x2c8eu, 0x2e78u, 0xab1cu, 0x2de1u, 0x2cbeu, 0x2b60u, 0x2ee7u, 0x2e77u, 0x2c23u, 0xa5b0u, 0xb030u, 0xb080u, 0xac0au, 0x2855u, 0xb109u, 0x2f22u,
  0x2ab9u, 0xada7u, 0xb007u, 0xab86u, 0xae3fu, 0x3096u, 0x2e47u, 0x2dceu, 0xace8u, 0xb0f1u, 0xa585u, 0x2a8au, 0xae06u, 0xb024u, 0xad8eu, 0xad87u,
  0xab29u, 0x2ec1u, 0xb02du, 0xa4c1u, 0x245au, 0x3059u, 0x3063u, 0x2d10u, 0x2c1cu, 0x3061u, 0x2cfcu, 0xaf45u, 0x2fc8u, 0x24c2u, 0xac7au, 0x309fu,
  0xa0ddu, 0xaf0du, 0x2f76u, 0x2b55u, 0xabb5u, 0x3088u, 0x315du, 0x1981u, 0xb0adu, 0x2a5au, 0xa66au, 0x28c7u, 0x3073u, 0x2fc6u, 0xa4cau, 0x2ca2u,
  0x2ebfu, 0x314du, 0x2d6eu, 0xacd3u, 0x2b6eu, 0x268cu, 0x28b2u, 0x2ae2u, 0xac30u, 0xb14cu, 0x305au, 0xb0cbu, 0x3008u, 0xa09fu, 0x1850u, 0x30b0u,
  0x307bu, 0x2222u, 0xa856u, 0x288fu, 0xaadbu, 0x2781u, 0x307cu, 0xaf26u, 0x2e5fu, 0xa67au, 0x285eu, 0x2a4cu, 0x21c8u, 0x3016u, 0x2ac7u, 0x2bd2u,
  0x2afbu, 0x2d40u, 0xb0d4u, 0x1417u, 0xb17cu, 0x2ad0u, 0x2edbu, 0x3016u, 0xa7b1u, 0xa202u, 0xa991u, 0xa399u, 0xa9dau, 0xaf10u, 0xb149u, 0x25a1u,
  0xae25u, 0x28e8u, 0xaeb8u, 0x301bu, 0xaf0fu, 0x307eu, 0xaca7u, 0x3011u, 0xaef1u, 0xaef0u, 0xac92u, 0x2d03u, 0x2df5u, 0xb083u, 0x3112u, 0x2f45u,
  0x28d0u, 0xa4c8u, 0x2de1u, 0xac03u, 0x2ebcu, 0xb0a0u, 0xad45u, 0x2291u, 0xa785u, 0xacd1u, 0x2d0fu, 0x27eau, 0x25e3u, 0x9bf7u, 0x3136u, 0x95b7u,
  0x2d3bu, 0xb0f6u, 0xa55fu, 0xa5a6u, 0xb142u, 0x2e1au, 0xaa17u, 0x283eu, 0xae37u, 0x312cu, 0xb0e4u, 0xb1e4u, 0xae3bu, 0x2de5u, 0xae29u, 0xb013u,
  0x2ccdu, 0xb09fu, 0x2f5eu, 0xb0ecu, 0xae31u, 0x2630u, 0x2405u, 0x313au, 0xab3bu, 0x28dfu, 0x2fb6u, 0x303bu, 0xb131u, 0x3187u, 0xb136u, 0x9b99u,
  0x300eu, 0x2c5bu, 0xa90bu, 0x3023u, 0x2549u, 0xac49u, 0xafacu, 0x2f67u, 0xb0f4u, 0xa001u, 0xb0c2u, 0x2aeau, 0xae7eu, 0x2fc6u, 0x287fu, 0xb040u,
  0xa4beu, 0xb141u, 0x2d04u, 0x2ed8u, 0xaf18u, 0xa9a8u, 0xadb9u, 0xb176u, 0x2a9du, 0x2bfdu, 0x2f2du, 0x2354u, 0xb095u, 0xab07u, 0xa898u, 0xa411u,
  0x2063u, 0xb050u, 0xad5au, 0x24fcu, 0xa14fu, 0xae29u, 0x26a7u, 0x319bu, 0x2f0au, 0x2878u, 0x30edu, 0xac3cu, 0xa89bu, 0xb0c6u, 0xae32u, 0xa8cdu,
  0x283eu, 0xac57u, 0xb03au, 0x265eu, 0xaf16u, 0xae16u, 0xaad8u, 0xb090u, 0xb14cu, 0xa9ebu, 0x30c5u, 0x3075u, 0xb04au, 0x307fu, 0x2adau, 0xaf90u,
  0xb056u, 0x1f3du, 0x2beau, 0xb0a9u, 0xb0bfu, 0x2f80u, 0x2bb6u, 0x3157u, 0xaeb0u, 0xac74u, 0x3099u, 0x2fa5u, 0xad86u, 0x2e17u, 0xa8edu, 0x3008u,
  0xaf9au, 0x290au, 0x2746u, 0xaea0u, 0xa6ffu, 0xa693u, 0x2f8fu, 0xb0b9u, 0x3051u, 0xa1c9u, 0xb02au, 0xb0c2u, 0x260du, 0xa90bu, 0x2c03u, 0x30d4u,
  0xaba2u, 0x31a3u, 0xb178u, 0x2d6bu, 0x2ff4u, 0x219au, 0xae9bu, 0x30e5u, 0x2ef0u, 0x13e9u, 0xb12cu, 0xa710u, 0xadb3u, 0xb148u, 0xb0c5u, 0xac2du,
  0x2693u, 0x2df1u, 0x2cecu, 0xac3au, 0x2ff1u, 0xadf0u, 0xb0dbu, 0xae63u, 0x2db9u, 0x2ce9u, 0xaa71u, 0xab6bu, 0xb17eu, 0xac6cu, 0x2ab6u, 0xad71u,
  0xaa00u, 0xaa4eu, 0x2a8fu, 0xac64u, 0x28a8u, 0xadf5u, 0x3011u, 0x2d6au, 0xae8cu, 0x31c7u, 0xab40u, 0xa46fu, 0xa884u, 0xb097u, 0x2913u, 0x30abu,
  0xb151u, 0xb196u, 0xa1e9u, 0xb01fu, 0x2c5du, 0x2cd1u, 0xb081u, 0xae7eu, 0x2d24u, 0x3065u, 0xb0c0u, 0x29e3u, 0x29f5u, 0x244eu, 0xa776u, 0xb0b7u,
  0xab10u, 0x2e55u, 0xb0c6u, 0x2d94u, 0xb02au, 0xabdbu, 0x2c5eu, 0xaf8au, 0xac80u, 0xac12u, 0x316au, 0xb0b7u, 0xa965u, 0x2b88u, 0xaf07u, 0xb10bu,
  0x2f36u, 0x2a26u, 0xab1du, 0x2cf0u, 0xad47u, 0xb06fu, 0xad71u, 0x267eu, 0xabbeu, 0x2f49u, 0xaee5u, 0xb19fu, 0xad24u, 0x2e4du, 0x2fe7u, 0x28b5u,
  0x31a7u, 0xaf93u, 0xa903u, 0xb0c2u, 0x28e2u, 0x315fu, 0x2ed9u, 0x274eu, 0xb081u, 0xb10du, 0xa918u, 0xb17eu, 0x2f5eu, 0xaf8bu, 0x2effu, 0x2e54u,
  0xb0ccu, 0xa464u, 0xabb5u, 0x2508u, 0x16b1u, 0x2859u, 0x3000u, 0x0fa0u, 0xae4eu, 0x2eebu, 0xb1c6u, 0x310du, 0xa4f7u, 0xb0b0u, 0xab1du, 0xad50u,
  0x2d48u, 0xb0d1u, 0x2de4u, 0x2c28u, 0x278fu, 0xae6au, 0x2edau, 0xaaa8u, 0x2b44u, 0xb003u, 0x2d07u, 0xad90u, 0x2bffu, 0xa104u, 0xaf09u, 0xa6d0u,
  0x206eu, 0xaba5u, 0xb0dfu, 0x3150u, 0xb163u, 0x2a27u, 0x2d54u, 0xabfeu, 0x2e50u, 0xae15u, 0xaa3au, 0x30efu, 0x20d1u, 0xae04u, 0xb118u, 0x30f9u,
  0x30ffu, 0x2dabu, 0x28abu, 0x311du, 0x263au, 0x3072u, 0xa3c3u, 0xb145u, 0x2c34u, 0xaf4au, 0xacb8u, 0x2fb2u, 0x3017u, 0x2f74u, 0xb090u, 0xaa9cu,
  0x2fcfu, 0x3079u, 0xb0afu, 0x2bdcu, 0xb087u, 0x2c20u, 0xb1cau, 0xa8cau, 0xab80u, 0x28ddu, 0x3099u, 0xb017u, 0x2f86u, 0xac47u, 0x3050u, 0x2fbau,
  0x29c4u, 0xadd7u, 0x2c86u, 0xb155u, 0x2f7au, 0xafb7u, 0xa603u, 0xb161u, 0x1f12u, 0x3172u, 0x2f15u, 0x1cf8u, 0xad2eu, 0x2c81u, 0xa4ecu, 0x2c6eu,
  0x2ea7u, 0x2ecfu, 0x2613u, 0xb122u, 0x3085u, 0xb15bu, 0xb085u, 0xac17u, 0x30e1u, 0xb00bu, 0x2ca5u, 0x2f0eu, 0x2dd9u, 0x2658u, 0x28edu, 0x3106u,
  0x2c3cu, 0xaeffu, 0x2dc9u, 0x2cb4u, 0x3004u, 0x2c0du, 0xae9bu, 0xacc4u, 0x305fu, 0x2a2eu, 0x29f4u, 0x311cu, 0xade4u, 0xad04u, 0xb1a2u, 0x31a1u,
  0x2e78u, 0x29d5u, 0x3176u, 0xacf8u, 0xb107u, 0x305fu, 0xac05u, 0x282du, 0xaf4au, 0xb09au, 0x300eu, 0x2dd7u, 0x2c9au, 0x2b61u, 0x2eddu, 0xadddu,
  0x2897u, 0x2d24u, 0x2917u, 0x28d4u, 0xb02au, 0x28feu, 0x30c1u, 0xb0c6u, 0xb07au, 0xaf87u, 0xac19u, 0x2a17u, 0x30d1u, 0x2bf4u, 0x3028u, 0x2cbbu,
  0xb115u, 0xa918u, 0xaae4u, 0xb1a1u, 0x2c2eu, 0xaa6fu, 0xafbdu, 0x302cu, 0x2a57u, 0x1bb8u, 0xac51u, 0x2fb4u, 0xab89u, 0xa88fu, 0xa26bu, 0xacc0u,
  0xa892u, 0xb09au, 0xa60au, 0x2ec0u, 0x2f8cu, 0x92abu, 0x2bc4u, 0xa7e9u, 0xa72au, 0x25ddu, 0x314au, 0xa864u, 0xadbeu, 0xb112u, 0x254du, 0xa78cu,
  0xafdbu, 0x2f13u, 0x2f7eu, 0x2cd6u, 0x284cu, 0xa506u, 0xaba2u, 0xaa36u, 0x2a95u, 0x9c9au, 0xac71u, 0x28adu, 0xac6fu, 0x21beu, 0x310eu, 0xb0d5u,
  0xac72u, 0xb062u, 0x209du, 0xae7au, 0xb0e8u, 0xad23u, 0x2cefu, 0x2fd5u, 0xad0fu, 0x185eu, 0x9ce9u, 0x11cbu, 0x1daau, 0x2c15u, 0xa049u, 0xa7dau,
  0x246du, 0x29eeu, 0x2937u, 0x2dd8u, 0xadbfu, 0xaa1eu, 0x2b49u, 0x312bu, 0xa8a2u, 0x0ec2u, 0x2c9cu, 0x3046u, 0xb084u, 0x2f39u, 0x302eu, 0x303eu,
  0x2558u, 0x2894u, 0x9c3du, 0x3049u, 0x986bu, 0xb135u, 0xb02eu, 0xa6fau, 0x2d99u, 0xb0dau, 0xb120u, 0x2eefu, 0x2f34u, 0x30bau, 0xb16bu, 0x21c5u,
  0x2730u, 0x2cb1u, 0x30a3u, 0x2e3eu, 0xaf0eu, 0xb18fu, 0xb18fu, 0xa389u, 0xa752u, 0xae0cu, 0x2bb3u, 0x2ec7u, 0xb0b1u, 0xa6bcu, 0x24bau, 0x9743u,
  0xad07u, 0x2df7u, 0x2970u, 0xad65u, 0xb0edu, 0xacacu, 0xac2eu, 0x9f97u, 0x95e1u, 0xb0d7u, 0xb157u, 0xb013u, 0xb0b7u, 0xb1c5u, 0x2d77u, 0xa742u,
  0x3090u, 0x244au, 0x2dedu, 0x27f0u, 0xa846u, 0x3088u, 0x2f73u, 0xaafdu, 0x2dabu, 0xb1ddu, 0xa549u, 0x3087u, 0x30ddu, 0x3147u, 0x2edcu, 0xb0b4u,
  0xa91eu, 0x3025u, 0xb100u, 0x30ceu, 0xade1u, 0xb11au, 0xa90du, 0x2693u, 0x307fu, 0x3149u, 0xa80eu, 0xaf75u, 0xad9bu, 0x2a4fu, 0xaec2u, 0x1c04u,
  0x316eu, 0x3194u, 0xaf85u, 0xb071u, 0xa6e5u, 0x27dcu, 0x2459u, 0x2cabu, 0x1be6u, 0x2956u, 0x2380u, 0x283bu, 0x2fabu, 0xa418u, 0x2224u, 0x30beu,
  0xb044u, 0xb144u, 0xaf5au, 0x31a0u, 0x2656u, 0xadaeu, 0x9ea6u, 0x30fdu, 0xb0d8u, 0x316fu, 0x301cu, 0xb06bu, 0x2eedu, 0xad73u, 0xace5u, 0x2f86u,
  0x2568u, 0x2ca7u, 0xaf7au, 0x2efeu, 0x306du, 0x2648u, 0xa140u, 0xad1fu, 0x218eu, 0xaaf0u, 0x2f54u, 0x3089u, 0x256cu, 0xab63u, 0xb199u, 0x2026u,
  0xb0eeu, 0xac0bu, 0xaedcu, 0xb167u, 0xb016u, 0x2cd0u, 0x2f35u, 0x2dd6u, 0x28a0u, 0xafd6u, 0x2253u, 0x2d2au, 0xb136u, 0xa355u, 0xa08bu, 0xa792u,
  0xa723u, 0x30d1u, 0x2ef1u, 0xb031u, 0xb169u, 0xb065u, 0xb197u, 0xa32eu, 0xa8dcu, 0x30c1u, 0x2cf0u, 0x30a2u, 0xb18bu, 0x2ec7u, 0xb0e8u, 0xb0e1u,
  0x1f8du, 0xabceu, 0x29f7u, 0xb182u, 0xb028u, 0x22bau, 0xaf35u, 0x304cu, 0x2aa8u, 0xb076u, 0x3189u, 0x1d0du, 0xb130u, 0xaae7u, 0xa9feu, 0x2ca0u,
  0xb079u, 0xa624u, 0xaf43u, 0xad4bu, 0x2ff7u, 0x1463u, 0x2fafu, 0x9b64u, 0xaf51u, 0xaedau, 0xb0aeu, 0x31a1u, 0x315cu, 0x2c54u, 0xa9cau, 0xb0cau,
  0x2310u, 0xa8d4u, 0xacb7u, 0x288du, 0x3177u, 0x27adu, 0x2b10u, 0xb080u, 0xae45u, 0xafeau, 0x20ecu, 0xb044u, 0x2db2u, 0xb07cu, 0x3043u, 0x98b1u,
  0x299eu, 0x2c7au, 0xb042u, 0x9ff1u, 0x2f77u, 0x2dcdu, 0x2df6u, 0xb19eu, 0xb0d6u, 0x28bau, 0xb185u, 0x2c47u, 0xac5bu, 0x30dbu, 0x3099u, 0xab0bu,
  0x2c8cu, 0x2397u, 0x1cdfu, 0xadfcu, 0x2ba1u, 0x2d6bu, 0xa6c1u, 0xa3fdu, 0xaadau, 0x2f40u, 0xae43u, 0xb223u, 0x30bfu, 0x2d55u, 0xb168u, 0x2fe5u,
  0xac38u, 0xaea4u, 0x2fdau, 0xaa59u, 0xb085u, 0x2f9cu, 0x288bu, 0x2f9fu, 0xa583u, 0x2fa2u, 0x2c89u, 0xaf85u, 0xaecfu, 0xb156u, 0xac4au, 0xb0dcu,
  0x2c40u, 0xafdau, 0x2da6u, 0xb197u, 0x2d1eu, 0xac7fu, 0xb082u, 0xaf83u, 0xb060u, 0xa933u, 0x2ed4u, 0x2ddbu, 0x2e46u, 0x3184u, 0x2dc8u, 0x2725u,
  0xa38eu, 0xb0afu, 0xa53au, 0x2b4fu, 0x216au, 0xaaafu, 0x2924u, 0x309du, 0xa828u, 0x300eu, 0x2ec6u, 0x276fu, 0x2c3eu, 0x30ceu, 0x9e9cu, 0x2878u,
  0x2f19u, 0xa59fu, 0xb1d0u, 0xad88u, 0x2f2bu, 0x2640u, 0xb04bu, 0xb1ccu, 0xb145u, 0xad36u, 0x1966u, 0x9fcau, 0x25adu, 0xaf15u, 0x2b5fu, 0xad30u,
  0x2a9du, 0xacd6u, 0xad60u, 0xacb9u, 0x2d58u, 0x305fu, 0xab82u, 0xb055u, 0xa25du, 0xb13fu, 0xb1b3u, 0x1e0eu, 0x303du, 0xb18bu, 0x9edcu, 0xa94du,
  0x2a3eu, 0x30fau, 0xa569u, 0x2bacu, 0xb131u, 0x313cu, 0xaa4bu, 0xa6d8u, 0xae3au, 0x2f9du, 0xb00eu, 0x2ef5u, 0xac0eu, 0x312bu, 0xae6fu, 0x2a32u,
  0xa8a1u, 0x2d59u, 0x3027u, 0xaed2u, 0xae4bu, 0xb008u, 0xaccdu, 0x300eu, 0x2b4eu, 0xaf8du, 0xb0dau, 0x246eu, 0xb0fdu, 0x98f0u, 0x30adu, 0xa6beu,
  0xadaeu, 0x30cfu, 0x2f5eu, 0x2eb1u, 0x30e1u, 0x2e7fu, 0x2c3fu, 0x2db8u, 0xa821u, 0x1f14u, 0xac1du, 0xb193u, 0x289eu, 0x9896u, 0x2fb2u, 0x2424u,
  0x2c9eu, 0x3044u, 0xad56u, 0x2eb1u, 0x2e6bu, 0x2657u, 0x286au, 0x2cd5u, 0xb099u, 0xb0c4u, 0x2d66u, 0x2f45u, 0xacfcu, 0x2f58u, 0x312eu, 0xab38u,
  0x247du, 0xaf9cu, 0x2fe7u, 0xae1du, 0x1d5fu, 0x29f2u, 0xac29u, 0x265fu, 0x2fa1u, 0xaf79u, 0x2ff0u, 0xaecau, 0x30c1u, 0x2993u, 0x2751u, 0xa645u,
  0xb0b9u, 0xaf6au, 0xb0b7u, 0xb14eu, 0xa817u, 0xb09fu, 0xafabu, 0xab64u, 0x28b5u, 0x2a26u, 0x3144u, 0x2fc4u, 0xa8a0u, 0x1421u, 0xa7bfu, 0xae4fu,
  0xafaeu, 0xb0dbu, 0xb0f3u, 0x313du, 0xa9d6u, 0x2f30u, 0xb067u, 0xaecau, 0x2717u, 0x15b1u, 0x2e60u, 0x267fu, 0xae3fu, 0xb13eu, 0xad8cu, 0xae73u,
  0x2d05u, 0xac51u, 0xb05cu, 0x2147u, 0xac28u, 0x2ca2u, 0x2eadu, 0xad9cu, 0xb199u, 0xa50du, 0x30f3u, 0xb126u, 0xab7du, 0x2f4cu, 0xa9aau, 0xaf84u,
  0x30a5u, 0x2a79u, 0xaa48u, 0x9d8fu, 0xadcau, 0xaf62u, 0xa432u, 0xa99bu, 0x2c25u, 0xa8b7u, 0x2ea6u, 0x3058u, 0x3144u, 0x30b6u, 0x2c90u, 0x25cfu,
  0xb0bbu, 0x3091u, 0xb132u, 0x2f5eu, 0x2d53u, 0x2e3du, 0x306fu, 0xacc5u, 0xa64fu, 0x2d6bu, 0x2274u, 0x2bf5u, 0x30b8u, 0xa43du, 0x2c76u, 0xac23u,
  0x30a1u, 0x1130u, 0x25a1u, 0xb120u, 0xb064u, 0xb137u, 0xb056u, 0xaf58u, 0x288fu, 0x30bfu, 0xb05du, 0xab55u, 0xa81cu, 0xb1a0u, 0x296du, 0xa973u,
  0x307eu, 0xa891u, 0xad04u, 0x9fa2u, 0xa97fu, 0xab3bu, 0x2966u, 0x2e0cu, 0xaec7u, 0xaf50u, 0xa7b8u, 0xad27u, 0x2f9au, 0xb0d7u, 0x30d3u, 0x27cau,
  0xb00au, 0x1814u, 0xac0fu, 0x2db5u, 0x304du, 0x30b8u, 0x2b49u, 0x29cdu, 0x1e57u, 0x2e8bu, 0xb088u, 0xb0eau, 0x2a25u, 0xb091u, 0x9ab7u, 0x2544u,
  0x2b08u, 0x2cb9u, 0xa405u, 0xa847u, 0xaca9u, 0xb0e8u, 0xa89fu, 0xb0fau, 0x2e40u, 0x9b86u, 0xafe7u, 0xaea9u, 0xab41u, 0xab30u, 0xad7du, 0x2bfbu,
  0xb123u, 0xaca4u, 0x2cbbu, 0xb19du, 0x3046u, 0xb147u, 0xb10cu, 0x2ec8u, 0xb0d1u, 0x2ffcu, 0x2312u, 0x3024u, 0xb0bfu, 0xb0cau, 0x2d62u, 0x317fu,
  0x21c3u, 0xae73u, 0xaf20u, 0xb030u, 0x266eu, 0xacc1u, 0xa97fu, 0xad87u, 0x2ac9u, 0x311fu, 0xac3bu, 0xa8f5u, 0xae48u, 0xa362u, 0x2968u, 0xa512u,
  0xb0bau, 0xaef4u, 0x2d88u, 0x3100u, 0xb108u, 0x2be2u, 0x2d2cu, 0xaf16u, 0x28fbu, 0x3058u, 0xb15au, 0xa527u, 0xad16u, 0xb094u, 0x2996u, 0x2c7du,
  0xadbdu, 0xaf21u, 0x2b1au, 0x2fd8u, 0xafa5u, 0x2886u, 0x3066u, 0xb070u, 0x2fe7u, 0x97b9u, 0x2f9fu, 0xb2d4u, 0x20e2u, 0xab07u, 0x1f60u, 0x2deau,
  0xa152u, 0xa9b5u, 0xaa66u, 0x2f26u, 0x24cau, 0x3119u, 0x3022u, 0xab96u, 0xb02eu, 0x2c6eu, 0x291bu, 0xb189u, 0x2c76u, 0xac91u, 0xac37u, 0x30ecu,
  0x30a0u, 0x2cbcu, 0x30dbu, 0x300au, 0x2bf1u, 0x315cu, 0x2db6u, 0x2ee1u, 0x2c81u, 0xb119u, 0xad6bu, 0x3009u, 0xb19eu, 0xa9c6u, 0x2843u, 0xb0a0u,
  0x1caeu, 0xb1c6u, 0x3098u, 0xb206u, 0xa13fu, 0xb0b8u, 0xa5d1u, 0xab95u, 0x25deu, 0x2b03u, 0xa482u, 0xaa38u, 0x23cbu, 0xac1au, 0xa849u, 0xb07bu,
  0x2c64u, 0xad7fu, 0x2bafu, 0xa4cfu, 0x9ea3u, 0xadceu, 0x2da7u, 0x2ce6u, 0x2eb6u, 0xa9f8u, 0x2ee1u, 0x2cdcu, 0xb140u, 0x2e8eu, 0x2645u, 0xa448u,
  0xa8fdu, 0xa419u, 0xb0b9u, 0xb108u, 0xac59u, 0xb126u, 0x2c3eu, 0x2f1cu, 0x2844u, 0xac66u, 0x2d2au, 0x2fd7u, 0xac0cu, 0x3173u, 0x2d3eu, 0xadb7u,
  0xb033u, 0xad55u, 0xaef8u, 0xaee8u, 0xb15bu, 0x313fu, 0x30a8u, 0x30c1u, 0xb175u, 0xad94u, 0x30cbu, 0x2f5du, 0xa8d0u, 0x314fu, 0x181au, 0xa842u,
  0xb04cu, 0xae6du, 0xa767u, 0xadf0u, 0x2d3bu, 0xad00u, 0xa913u, 0xade2u, 0xa14bu, 0xafd5u, 0xb069u, 0x308cu, 0x29c1u, 0x2e36u, 0xa8c6u, 0x2fe9u,
  0x2a31u, 0xb178u, 0xacffu, 0xaad2u, 0x2a61u, 0x2fbbu, 0xab65u, 0xb10du, 0xa1edu, 0x29e8u, 0x2610u, 0x313eu, 0x2c91u, 0x2efbu, 0x259eu, 0x2f35u,
  0x2abcu, 0x8d18u, 0x29e2u, 0xac85u, 0x3169u, 0xb0c7u, 0xb1afu, 0xab25u, 0xb185u, 0x3122u, 0x2a39u, 0x2f70u, 0x308cu, 0xafd9u, 0x2637u, 0x2c98u,
  0xb04eu, 0x2fb5u, 0x2ad3u, 0xa716u, 0xb052u, 0xb0cdu, 0xa839u, 0xb159u, 0xae23u, 0xad14u, 0xafccu, 0xab86u, 0x2d74u, 0xb03eu, 0xb17au, 0xa5d1u,
  0xb1d4u, 0xad31u, 0x2d61u, 0x3033u, 0x285fu, 0x9e08u, 0x2cc7u, 0x312bu, 0xb1f3u, 0x2dbeu, 0xaf74u, 0x2e55u, 0xa2f2u, 0x2b1eu, 0x3145u, 0xb088u,
  0x2ebdu, 0xaa0bu, 0xaf0au, 0x26d8u, 0xa4dfu, 0x29bau, 0xb026u, 0xb074u, 0x2a6cu, 0x2fc5u, 0x2db3u, 0x2e03u, 0x30dcu, 0xb022u, 0xa839u, 0x2f7bu,
  0xb124u, 0x2286u, 0x241bu, 0xa3c9u, 0x2961u, 0x2218u, 0xafa4u, 0x2d1du, 0x30dau, 0xac0bu, 0x2c44u, 0xb055u, 0x2e8bu, 0x318fu, 0x30fbu, 0x1bd6u,
  0x2908u, 0x2d0au, 0xab33u, 0xadc5u, 0xa48cu, 0xb156u, 0x2c77u, 0x199au, 0xae5fu, 0x300au, 0x2349u, 0xa8fbu, 0x3185u, 0xa929u, 0x230eu, 0xaf28u,
  0x2f63u, 0x2704u, 0x2d2cu, 0x31bbu, 0xac75u, 0xb04au, 0x9c4eu, 0x2f78u, 0xb15du, 0x2d1eu, 0xab3bu, 0x29a3u, 0xaf00u, 0xa926u, 0xb048u, 0xa3a6u,
  0xa0ebu, 0xb093u, 0x2a91u, 0xa4a2u, 0xa683u, 0xa8bdu, 0xaeb0u, 0xa639u, 0xaeb6u, 0xa7ecu, 0xa812u, 0xad87u, 0x303du, 0x2474u, 0x2806u, 0xac61u,
  0x2f49u, 0x2626u, 0x244fu, 0x2dd2u, 0x2ef0u, 0xaddfu, 0x228eu, 0xac39u, 0xaa31u, 0xaeb5u, 0x26a7u, 0xa6b3u, 0xad0du, 0xad57u, 0x285eu, 0x2cb5u,
  0xac4fu, 0x29c9u, 0x240eu, 0xa0acu, 0x305fu, 0xa8b1u, 0xb143u, 0x1e01u, 0xb04fu, 0x28b5u, 0xb0ccu, 0x2c85u, 0xab3fu, 0x2fa9u, 0xac93u, 0xa78bu,
  0xacc2u, 0xaf90u, 0x3247u, 0x2955u, 0x2105u, 0x29d2u, 0x27a4u, 0x2d3cu, 0xa441u, 0x2c60u, 0x3034u, 0xb03fu, 0xa01cu, 0x23d2u, 0xb05cu, 0xa38au,
  0x9b80u, 0x2562u, 0x2c32u, 0x2cf8u, 0x9d06u, 0xac92u, 0xaf96u, 0x9c72u, 0xaee2u, 0xb18eu, 0x2f37u, 0xa28cu, 0xb171u, 0x2eb7u, 0x2588u, 0x9a5fu,
  0xb001u, 0xacb9u, 0xa9b7u, 0xae0du, 0x2c87u, 0xae00u, 0x3037u, 0x2907u, 0x1e5eu, 0xa4bfu, 0x2e40u, 0x301bu, 0x3128u, 0xb15cu, 0xac79u, 0xa581u,
  0xadb5u, 0xad68u, 0xa675u, 0xb10cu, 0xafb7u, 0xb103u, 0x313bu, 0xb073u, 0x3187u, 0x2ffcu, 0x30c2u, 0x246du, 0x26bfu, 0x2c54u, 0x2253u, 0x2f14u,
  0xa96cu, 0xac0bu, 0xad05u, 0x2ee4u, 0x2a09u, 0xae9cu, 0x2a92u, 0x257au, 0xadfcu, 0x30f2u, 0xad7cu, 0xb026u, 0xa0c9u, 0xa65au, 0x2067u, 0xaa58u,
  0xada0u, 0xae90u, 0x31a1u, 0xa01au, 0x3015u, 0xb10du, 0x3042u, 0x2f8du, 0x30b6u, 0x25d3u, 0xb09bu, 0x2ec1u, 0x2c05u, 0xa199u, 0xab8bu, 0xa6aeu,
  0x9daau, 0xb155u, 0x30f5u, 0x22d3u, 0xb112u, 0x2ec1u, 0x236bu, 0xa763u, 0xab80u, 0x3070u, 0x2d4cu, 0xa5a9u, 0xae62u, 0xadd6u, 0xafddu, 0xade1u,
  0x2ed3u, 0x239du, 0xaca4u, 0xb066u, 0xaa6fu, 0xafe1u, 0x2deeu, 0xaff5u, 0x3036u, 0xb0c5u, 0x2dd7u, 0xad63u, 0x2d2bu, 0x2ea4u, 0x2bc1u, 0x29b7u,
  0xad6eu, 0xad84u, 0x2ba8u, 0xa6cbu, 0xb02au, 0x2927u, 0x2b32u, 0x2d36u, 0x28e4u, 0xb0e5u, 0x30a6u, 0x2d0bu, 0x2ccdu, 0xb049u, 0x2efau, 0x2d9bu,
  0x318du, 0x279fu, 0xa9e2u, 0xa917u, 0x2dffu, 0x2921u, 0x1ab4u, 0x270au, 0x300cu, 0xb158u, 0x30dau, 0xb025u, 0x293au, 0xaefeu, 0xac1du, 0x2c12u,
  0xb132u, 0xb02cu, 0x308cu, 0x2a93u, 0x2de3u, 0xb0e0u, 0x3089u, 0x2f3cu, 0xaca8u, 0xb129u, 0x2b85u, 0x2d82u, 0xaee8u, 0xb122u, 0xac35u, 0x220cu,
  0x2c3bu, 0x261du, 0xb144u, 0x2a08u, 0xb087u, 0x2ae7u, 0xafbeu, 0xac1au, 0xacc4u, 0xae31u, 0x299fu, 0x2525u, 0xb0eeu, 0xaeeeu, 0x0f9fu, 0x2ef6u,
  0x29a9u, 0x2c5cu, 0xb110u, 0x254bu, 0xaeb5u, 0x2d88u, 0x2bd0u, 0xa40eu, 0xac37u, 0xb0a5u, 0x2905u, 0x2f78u, 0x9c96u, 0xada1u, 0xacefu, 0xac34u,
  0xaa55u, 0xae2cu, 0x31c8u, 0x214bu, 0xae6au, 0x2f32u, 0xa82du, 0x2a4bu, 0xaf92u, 0x316au, 0x28a3u, 0xaf68u, 0xa410u, 0x2f2du, 0x95dcu, 0x3109u,
  0xb0c3u, 0xad34u, 0xaffbu, 0x2459u, 0x2723u, 0xa87bu, 0xa65fu, 0xaaaeu, 0x2df8u, 0xb0b6u, 0xac80u, 0xaeecu, 0x291du, 0x2378u, 0x2607u, 0xa850u,
  0xa8fbu, 0xb168u, 0xacc5u, 0x2e5cu, 0x3003u, 0x2ea9u, 0xaeb9u, 0xac98u, 0xb09bu, 0x963du, 0xa45bu, 0xa8f7u, 0xb048u, 0xaf8cu, 0xb14fu, 0x2f70u,
  0x307bu, 0x2e44u, 0xad88u, 0x2e33u, 0x2c7cu, 0xaeb6u, 0x29cfu, 0xad46u, 0x2cd8u, 0x2e26u, 0xa078u, 0x2fcdu, 0x2ba2u, 0x2b22u, 0x2f44u, 0xb102u,
  0xafb3u, 0x30c1u, 0x3189u, 0x2572u, 0x302du, 0xb07du, 0xb208u, 0xaecbu, 0xaf18u, 0x2bc4u, 0x0ccfu, 0xb1d6u, 0x2fb1u, 0xad3cu, 0xb126u, 0xac5fu,
  0x2c8cu, 0x2cb5u, 0x2ac8u, 0x9811u, 0x305fu, 0xaf59u, 0x29fbu, 0x2a41u, 0x2dceu, 0xa9ceu, 0xaf4au, 0x3070u, 0x30e2u, 0xb040u, 0xaf5fu, 0xaf54u,
  0x2fa2u, 0xb0ebu, 0xaaf5u, 0xae18u, 0xa637u, 0x2df5u, 0x2a29u, 0xa0f6u, 0xb055u, 0xaf77u, 0xb122u, 0xab9cu, 0xb21eu, 0xa8d3u, 0x2b8cu, 0xa862u,
  0x9855u, 0x3000u, 0xafbcu, 0xb20du, 0x245cu, 0x2b94u, 0xa812u, 0xb1eeu, 0x2d70u, 0xa8a8u, 0xb04du, 0xb171u, 0x2e14u, 0xad9eu, 0x2c45u, 0x3103u,
  0xaeeau, 0x2dfdu, 0xb0f6u, 0xac32u, 0xae70u, 0x3151u, 0xa851u, 0xb05eu, 0xac70u, 0xa8cfu, 0xae3bu, 0xb1b0u, 0xb01bu, 0xb001u, 0xa7a9u, 0x2bd4u,
  0x19ffu, 0x2d4du, 0x2fadu, 0x25acu, 0x2916u, 0x2b18u, 0x2d2du, 0x2eb6u, 0xac6fu, 0x3162u, 0x2a1au, 0x2df0u, 0xaf1eu, 0x2ea7u, 0xaff5u, 0x2c17u,
  0x24c0u, 0x2d1fu, 0x30b7u, 0x3026u, 0xb0e3u, 0xad33u, 0xa531u, 0xb061u, 0x30f2u, 0xa982u, 0x9e03u, 0xa6e7u, 0xa7f6u, 0xadf9u, 0xb1d3u, 0x2e46u,
  0xb201u, 0x2f6bu, 0x2d28u, 0x2cdbu, 0xae8fu, 0x2f19u, 0xa8dbu, 0x2b15u, 0xab14u, 0x9366u, 0xb090u, 0xb0e9u, 0xa771u, 0x2a24u, 0x2d34u, 0xaa2du,
  0x3016u, 0x2e8bu, 0x2f0cu, 0xaceau, 0xb080u, 0x302fu, 0xb179u, 0xa99du, 0xac70u, 0x2fd7u, 0xadaeu, 0x2b08u, 0x311fu, 0xab3bu, 0x2e81u, 0x2e28u,
  0x2d0cu, 0xb072u, 0xa478u, 0xaadfu, 0xabf4u, 0xae5au, 0x2d24u, 0x2fe3u, 0x2a72u, 0x197fu, 0x2d69u, 0x2e5cu, 0xac04u, 0xb139u, 0x9244u, 0xb055u,
  0x2a69u, 0x301au, 0x2fbfu, 0x2383u, 0xa598u, 0x310eu, 0x2ddeu, 0x3029u, 0x2a74u, 0xb108u, 0xa7b3u, 0x2d5du, 0xb101u, 0x2b61u, 0xb05du, 0x3011u,
  0x2a14u, 0x3172u, 0x2f86u, 0xb051u, 0xacc5u, 0x2fd2u, 0xab4bu, 0x2d09u, 0x2031u, 0x3172u, 0x9e34u, 0xafc9u, 0x26f4u, 0xb148u, 0xaeb5u, 0xaa7fu,
  0x30abu, 0x9e22u, 0x2d92u, 0x2e6au, 0xae9fu, 0xacfbu, 0xb1eeu, 0x1630u, 0xa4bdu, 0xb04fu, 0x3045u, 0x2d1eu, 0x304eu, 0xa537u, 0x2e5fu, 0xadc0u,
  0x2b21u, 0xb199u, 0x296eu, 0x3008u, 0x2acfu, 0xac5fu, 0x2f7au, 0x3022u, 0xac6fu, 0xadebu, 0xb195u, 0x3074u, 0xb10cu, 0xace0u, 0xaf46u, 0x301bu,
  0xa807u, 0x294eu, 0xb0c2u, 0x2bc2u, 0x1916u, 0x311eu, 0x2ba0u, 0x2a20u, 0x27fau, 0x2d33u, 0x2f46u, 0xae56u, 0x1dafu, 0x2c66u, 0x284fu, 0x291cu,
  0xac97u, 0x2d88u, 0xaa6eu, 0xaf90u, 0xa129u, 0x2216u, 0x31f7u, 0x253au, 0x3126u, 0xad96u, 0xb14au, 0x2da0u, 0x2f6eu, 0x2d11u, 0xa9bbu, 0x994bu,
  0x2d92u, 0x2ad4u, 0x30e3u, 0xa967u, 0xaf41u, 0x2d33u, 0x2fb3u, 0x95c8u, 0xafebu, 0x2bc5u, 0xaa12u, 0x2c0fu, 0x23e7u, 0x28f6u, 0xa7bbu, 0xaf3au,
  0x3097u, 0x2dccu, 0x9cabu, 0xa8fau, 0xaaebu, 0x2d04u, 0xb16eu, 0x2d02u, 0x2c74u, 0xb035u, 0xaf08u, 0x2ef7u, 0x2953u, 0x2d45u, 0x28f1u, 0x2c33u,
  0xac6eu, 0xad85u, 0x2f93u, 0xa943u, 0x2cb2u, 0x2d3au, 0xb1d7u, 0xaf10u, 0xa9a6u, 0x30adu, 0xacd5u, 0xa53cu, 0x3045u, 0x2d18u, 0x2f8eu, 0x2d44u,
  0x2fe3u, 0x305du, 0xb05au, 0x30c9u, 0x2c19u, 0xaddfu, 0xaf6eu, 0x2d54u, 0x2d4du, 0x319bu, 0xae73u, 0x3178u, 0xa7a3u, 0xb04au, 0xae1cu, 0x2e1fu,
  0x3048u, 0xaec4u, 0xaef4u, 0x236bu, 0x2df6u, 0xa962u, 0x300au, 0x1400u, 0x2eb1u, 0xb0ecu, 0x2e27u, 0xaf05u, 0x9dc0u, 0x3105u, 0x2421u, 0xaf31u,
  0xb0fcu, 0xb084u, 0xb161u, 0x2dc7u, 0x248du, 0xa894u, 0x2f9fu, 0xac8bu, 0xb11bu, 0xa2e4u, 0x3147u, 0x2ac1u, 0xa8fcu, 0x9976u, 0x2993u, 0xb171u,
  0x2ffcu, 0xb17fu, 0x312bu, 0x07b4u, 0xa880u, 0x2c30u, 0x311eu, 0xaf90u, 0x30ddu, 0xa77bu, 0xa936u, 0x30aau, 0x2a86u, 0x3129u, 0xab58u, 0xb0f1u,
  0xb13cu, 0x301cu, 0x2ceau, 0xaf3cu, 0x2939u, 0x2350u, 0x2ef4u, 0xb119u, 0x25e9u, 0xb18au, 0xb173u, 0x24d2u, 0xa6ffu, 0x2037u, 0xae10u, 0x2fe3u,
  0xa4fbu, 0x30e3u, 0xa6a6u, 0xac5cu, 0xb14fu, 0xa965u, 0xa3d8u, 0xaf76u, 0x224bu, 0xa9fcu, 0xa907u, 0xac2eu, 0x28eeu, 0x2c0cu, 0x2f67u, 0x2d51u,
  0xaeb8u, 0x2582u, 0x2df5u, 0x24b4u, 0x2cf3u, 0x18c2u, 0x2d48u, 0x24bcu, 0x9947u, 0xaeb2u, 0xab75u, 0x30b4u, 0x3103u, 0x2f03u, 0xa515u, 0x22cau,
  0xaf8eu, 0xad8au, 0xa449u, 0x284eu, 0x3048u, 0x2d0bu, 0x2fd5u, 0xac99u, 0x3056u, 0x2c8au, 0xaf38u, 0xacd3u, 0xac54u, 0x30cdu, 0x28a8u, 0xad9cu,
  0x28a1u, 0x2f02u, 0x2ee8u, 0xae0au, 0x2c7cu, 0xafc1u, 0xb107u, 0x30e9u, 0xa45du, 0x2c7cu, 0xb049u, 0xb0cdu, 0xb13cu, 0x26b6u, 0xac2cu, 0xb0c7u,
  0x2ee8u, 0xa88eu, 0xa598u, 0x2800u, 0x3181u, 0xad59u, 0x2dbbu, 0x2970u, 0x2cf6u, 0xadfcu, 0xad26u, 0xb056u, 0xb03bu, 0x2908u, 0x2127u, 0x264du,
  0x2cb3u, 0xb056u, 0xa952u, 0x2fffu, 0xa8f3u, 0x2e52u, 0x3191u, 0xa72du, 0x2ce2u, 0xb147u, 0xacbbu, 0x312fu, 0xae73u, 0x28aeu, 0xb152u, 0x2e4du,
  0x2ce4u, 0x2e14u, 0xa4c2u, 0x2cb9u, 0x313eu, 0x2744u, 0x2c10u, 0x2c66u, 0xa620u, 0x2f2eu, 0x2dc1u, 0xac6fu, 0x3097u, 0x30beu, 0x2cc9u, 0x316eu,
  0x29e4u, 0x241eu, 0x2db7u, 0x2d62u, 0x2b2cu, 0x3097u, 0x2ebbu, 0x1a07u, 0x3028u, 0x2c60u, 0xb111u, 0x2f1fu, 0x3125u, 0x318eu, 0xaddcu, 0x26aau,
  0x2fd8u, 0xb0efu, 0xa9eau, 0xac16u, 0xb077u, 0xadb7u, 0xb062u, 0xb03cu, 0xaaf3u, 0xaacau, 0xad8bu, 0x2f10u, 0x30eeu, 0xaf77u, 0xae5au, 0x224cu,
  0xb0b3u, 0xac46u, 0xa50bu, 0x2d95u, 0x2a76u, 0x2addu, 0x3063u, 0x1d69u, 0x2873u, 0x3145u, 0x2c04u, 0xb11fu, 0xae3du, 0x2abbu, 0xae9cu, 0xaf5bu,
  0x2d1fu, 0x2ab0u, 0xae37u, 0xb106u, 0x30c7u, 0xb035u, 0xb18bu, 0xb180u, 0x3175u, 0xadf1u, 0x2d5cu, 0xa807u, 0x3149u, 0x2a78u, 0x25cfu, 0x3013u,
  0xb09eu, 0xb079u, 0x3138u, 0x2536u, 0xb119u, 0xad2du, 0xb140u, 0xa4afu, 0xad69u, 0xaf99u, 0xb165u, 0x02a4u, 0x244cu, 0x2822u, 0xb06fu, 0x2e32u,
  0xb199u, 0xb00eu, 0xaddeu, 0x1063u, 0x2d1eu, 0x2faau, 0xb0a5u, 0xae26u, 0x2ed1u, 0xb129u, 0x2336u, 0xaeadu, 0x2b2eu, 0xb0f7u, 0xab30u, 0xb166u,
  0x1e4au, 0xac96u, 0xacbdu, 0x30e0u, 0xb123u, 0xa72eu, 0x25dcu, 0xae4fu, 0xb086u, 0x2f6au, 0x211fu, 0xafe1u, 0xb023u, 0x318au, 0x2fc0u, 0x3114u,
  0xb16bu, 0x2f56u, 0xa088u, 0xb151u, 0x267fu, 0x2d2fu, 0x2a87u, 0x303eu, 0xad10u, 0xa6c3u, 0x2823u, 0xaf76u, 0xa9fdu, 0x2c0eu, 0xb0ebu, 0xa562u,
  0xad38u, 0x24ccu, 0x2d44u, 0xb106u, 0x2cb0u, 0x2e25u, 0x2d1bu, 0x2c5bu, 0xab23u, 0xad12u, 0x305du, 0xafaeu, 0x2fe7u, 0x22ceu, 0x0e48u, 0xb0d8u,
  0xa45du, 0x1feeu, 0xa1e1u, 0x2a3fu, 0xb09du, 0xb05eu, 0x3111u, 0xacffu, 0xa93au, 0xb1c4u, 0xb0b1u, 0x9d12u, 0xb0f8u, 0x1cc2u, 0xad98u, 0x2c56u,
  0x2aa9u, 0x30dfu, 0xb0b3u, 0x3057u, 0xac7bu, 0xb04cu, 0xb1c0u, 0xaeaeu, 0x29b1u, 0x1f70u, 0xb111u, 0x2c8du, 0x3070u, 0xab62u, 0xa667u, 0x2823u,
  0x2460u, 0xb189u, 0x2d95u, 0xacfau, 0x0f76u, 0xa4a2u, 0xad43u, 0x2f91u, 0x30c3u, 0xafcfu, 0xa62du, 0x2bceu, 0x309du, 0xa73du, 0x2bd3u, 0xadd0u,
  0xac53u, 0x30f9u, 0x2e6cu, 0x2e98u, 0xade4u, 0xabceu, 0x2e4du, 0xb0f0u, 0xacf7u, 0x30eeu, 0xaea6u, 0xa6a5u, 0x9e23u, 0x98fbu, 0x2d42u, 0x2c35u,
  0xa8ceu, 0xb14bu, 0xa118u, 0x3020u, 0x90a9u, 0xad09u, 0xaec2u, 0x3039u, 0x311eu, 0x21c4u, 0xaec7u, 0xaf85u, 0xb020u, 0x2c42u, 0xa626u, 0xb002u,
  0xb00cu, 0xb139u, 0xb047u, 0x2227u, 0xb13cu, 0xacf9u, 0x2cbau, 0xb113u, 0x2be1u, 0x2e73u, 0xae22u, 0xa76fu, 0x30a9u, 0xb168u, 0xab81u, 0xaa51u,
  0xb04bu, 0xb0c2u, 0x310cu, 0xaf17u, 0xaa51u, 0xa71cu, 0x2c84u, 0x26cdu, 0x2dc1u, 0x313bu, 0x30fau, 0xa0dcu, 0x2cb6u, 0xa09fu, 0x28a0u, 0xaba5u,
  0x3039u, 0xb1a5u, 0xa2beu, 0xa9e1u, 0x30bbu, 0x30bbu, 0xac18u, 0x2f67u, 0x2d63u, 0xaf2eu, 0xa830u, 0xb079u, 0x2c2fu, 0x9623u, 0xb0f2u, 0xa503u,
  0x2969u, 0xb0bfu, 0xb128u, 0xb062u, 0x2faau, 0x30f7u, 0xad5fu, 0xaea0u, 0x2a54u, 0xb014u, 0x28e0u, 0xaed4u, 0xb01du, 0xb169u, 0x1f9cu, 0x2e07u,
  0xb064u, 0xb107u, 0x249du, 0x2f5au, 0x2c07u, 0x21c9u, 0xace3u, 0xa46eu, 0x20a8u, 0xaef2u, 0x2983u, 0x286au, 0xaaa3u, 0x280bu, 0xaebbu, 0x1ca1u,
  0x3184u, 0x30b8u, 0xa225u, 0x2fd9u, 0x2be5u, 0x2d2du, 0xa80cu, 0x2d19u, 0xab9du, 0x8597u, 0xaf9du, 0x2c6bu, 0xab97u, 0xae2du, 0x3198u, 0x2d09u,
  0x2f5au, 0x2cb2u, 0x27a8u, 0x2e28u, 0x2661u, 0xaf2du, 0x257cu, 0xacc3u, 0xb092u, 0x29ffu, 0x2903u, 0x2db0u, 0x1fe6u, 0xae3bu, 0xb16eu, 0xadc7u,
  0xb1a6u, 0xaf97u, 0x317bu, 0xaf71u, 0x3000u, 0x27d0u, 0xac8cu, 0xac07u, 0x29a2u, 0x96c4u, 0xb109u, 0xae48u, 0x317du, 0x2ce6u, 0x30e5u, 0x2fadu,
  0xa9f7u, 0x26b7u, 0x30b6u, 0xb0eeu, 0x30dfu, 0x30ecu, 0xa8e2u, 0xb187u, 0xb039u, 0x2d5au, 0x9fedu, 0xaf3cu, 0x3056u, 0xacb3u, 0x30abu, 0xa84fu,
  0xaf78u, 0x3166u, 0x2cffu, 0xb082u, 0xaeceu, 0x30d4u, 0xab1au, 0x311bu, 0xa73eu, 0xab61u, 0xa83fu, 0xad79u, 0xb06eu, 0x2c27u, 0x2d57u, 0xa3e3u,
  0xaf51u, 0xa7aeu, 0xb154u, 0x2d38u, 0x282eu, 0xa896u, 0x30a5u, 0x3008u, 0x2659u, 0xa8c1u, 0x2ebeu, 0xa98du, 0x18e3u, 0xb034u, 0x29a4u, 0xb172u,
  0x3087u, 0x3030u, 0x2dc7u, 0x2cbeu, 0x2ce8u, 0x2f9bu, 0xa9f4u, 0x30c7u, 0xad9au, 0x304bu, 0xacc8u, 0xaf71u, 0x2c97u, 0xa751u, 0x2fcbu, 0xb078u,
  0x2f2fu, 0x2b59u, 0xb1a8u, 0x2ca8u, 0xa5efu, 0x3117u, 0x27b5u, 0xa554u, 0x2e35u, 0x3017u, 0xb0b3u, 0xaf04u, 0xb08cu, 0xb1aeu, 0x30d5u, 0x2329u,
  0xa8e9u, 0x277cu, 0x28deu, 0x3093u, 0xab91u, 0xa25eu, 0xae79u, 0x2894u, 0x9cb7u, 0x2e88u, 0xae3cu, 0x2f43u, 0xb03du, 0x319bu, 0xa727u, 0xb1b4u,
  0x2478u, 0xb128u, 0xa223u, 0xa97au, 0x30a4u, 0x3120u, 0x3065u, 0xa25du, 0xa45bu, 0x2e8eu, 0x2e25u, 0x3045u, 0xaa70u, 0xadf6u, 0x2c6du, 0x1d58u,
  0x303bu, 0xaddbu, 0x2e6au, 0xae1au, 0xaabeu, 0x2f59u, 0xa531u, 0x3035u, 0xb118u, 0xb043u, 0x2e5fu, 0x2d8eu, 0xa58au, 0x2ce0u, 0xaac7u, 0x30ebu,
  0xad45u, 0xaa3au, 0x2cb9u, 0xb113u, 0x9f51u, 0xa8e9u, 0x2fffu, 0x2b46u, 0x309fu, 0x9d4eu, 0xb019u, 0xb18fu, 0x2e53u, 0x30fcu, 0xb0adu, 0xaed5u,
  0x2c6bu, 0x278au, 0x2a46u, 0xaeb7u, 0x2fd8u, 0xaeb5u, 0x2948u, 0x2e14u, 0x3165u, 0xa8bdu, 0x2f28u, 0xae71u, 0x2687u, 0xb02bu, 0x3095u, 0xb19au,
  0x2f49u, 0xb0fbu, 0x22d7u, 0x29fdu, 0x9f70u, 0xaaabu, 0xb041u, 0xa4dcu, 0x2b13u, 0xae99u, 0xaf59u, 0x2b19u, 0xb119u, 0x9ffbu, 0x30ffu, 0x24fcu,
};
const unsigned int TRN_conv1d_1_kernel_len = 4096u;

// TRN_conv1d_1_bias
const unsigned short TRN_conv1d_1_bias_data[] = {
  0x2433u, 0x1338u, 0x1917u, 0xa63fu, 0x98d4u, 0xa165u, 0xa2d9u, 0x9b0fu, 0xa34cu, 0x9e09u, 0xa1f0u, 0xa23du, 0xa451u, 0x9933u, 0xa179u, 0xa195u,
  0xa1feu, 0xa733u, 0xa080u, 0x9e94u, 0x9e91u, 0x9d7eu, 0xa1e4u, 0xa1c7u, 0xa3b2u, 0x2152u, 0x9cedu, 0xa7bdu, 0x9e0du, 0xa172u, 0x9e94u, 0x9e98u,
  0x2681u, 0x9ea2u, 0x9ec1u, 0x9ea2u, 0xa025u, 0x95dau, 0xa393u, 0x9d38u, 0xa51au, 0xa044u, 0xa01fu, 0xa4bdu, 0xa8ecu, 0x2376u, 0xa63fu, 0xa35au,
  0xa53eu, 0xa328u, 0x281eu, 0x1f93u, 0x18e0u, 0xa482u, 0x276bu, 0xa3cfu, 0xa220u, 0x9b09u, 0x9ea7u, 0x9c20u, 0xa428u, 0xa100u, 0xa4d8u, 0xa35au,
};
const unsigned int TRN_conv1d_1_bias_len = 64u;

// TRN_dense_7_kernel
const unsigned short TRN_dense_7_kernel_data[] = {
  0x9a6fu, 0xa627u, 0xa361u, 0xa6fcu, 0xa455u, 0x28b4u, 0x297cu, 0x28dfu, 0x27e2u, 0x9b67u, 0x283fu, 0x221au, 0x266bu, 0xa029u, 0xaa0eu, 0xa68fu,
  0x24d9u, 0x2908u, 0xa155u, 0xa757u, 0xa4cbu, 0x2948u, 0xa025u, 0xa4adu, 0x1b84u, 0xa3c3u, 0xa691u, 0xa882u, 0x1c2du, 0x9debu, 0x24f6u, 0x2806u,
  0xa346u, 0x9c06u, 0x0312u, 0xa556u, 0x2be3u, 0xa766u, 0xa6dbu, 0x2507u, 0x2482u, 0xa494u, 0x1dbeu, 0x9c51u, 0x27dfu, 0x2554u, 0xa88du, 0x9810u,
  0x27b8u, 0x25d3u, 0x227fu, 0xa46du, 0xa3f6u, 0x2903u, 0xa59fu, 0xa541u, 0x2214u, 0xa73eu, 0xa84cu, 0xa6b2u, 0x24e1u, 0x29b8u, 0x2681u, 0x23bfu,
  0xa92du, 0xa618u, 0x25a8u, 0x9fffu, 0xa6f0u, 0x1c26u, 0x25beu, 0xa647u, 0xa509u, 0xa8e5u, 0xa250u, 0x18edu, 0x2650u, 0x1cc9u, 0x9fc5u, 0x25c8u,
  0x1c0fu, 0xa8f8u, 0xa242u, 0xa3ebu, 0xa172u, 0x2817u, 0x2846u, 0x99a7u, 0xa42cu, 0xa252u, 0xa6c5u, 0xa1d5u, 0xa698u, 0xa4aau, 0x260bu, 0x26ceu,
  0x2196u, 0x93c2u, 0x9195u, 0xa5b9u, 0xa968u, 0xa643u, 0x2407u, 0x2169u, 0x261eu, 0x2443u, 0x1d1au, 0xa84au, 0x20c1u, 0x9d4cu, 0x9eb0u, 0xa645u,
  0x24d7u, 0x240au, 0x2105u, 0x246cu, 0x9ff7u, 0xa237u, 0x143bu, 0xa2e0u, 0xa835u, 0x1f10u, 0xa248u, 0x9c86u, 0x2542u, 0x0395u, 0x9e60u, 0x2852u,
  0xa593u, 0xa076u, 0xa7b5u, 0x162cu, 0xa46bu, 0xa5b5u, 0xa964u, 0x2665u, 0xa495u, 0xa973u, 0xa862u, 0xa61bu, 0x20f7u, 0x24b9u, 0x2808u, 0x21edu,
  0xa44du, 0xa635u, 0xa8a1u, 0xa48du, 0xa5ebu, 0x2c45u, 0xabdfu, 0xa6f4u, 0xa992u, 0xaa60u, 0x280fu, 0xa288u, 0xa8f6u, 0xa8e0u, 0x9dcfu, 0x28acu,
  0x2093u, 0x268au, 0xa09bu, 0xa81cu, 0xa7a4u, 0x2359u, 0x1a7cu, 0xa0b9u, 0xa819u, 0xab79u, 0x2494u, 0x934fu, 0xa796u, 0xa6d7u, 0x289eu, 0x9269u,
  0xa51au, 0xa5adu, 0x25afu, 0xa5beu, 0xa91fu, 0xa713u, 0x281eu, 0x21adu, 0xa798u, 0xa8a0u, 0x1fb7u, 0x2795u, 0xa6bau, 0x24a9u, 0x9f4au, 0x220fu,
  0x24c3u, 0x1d0cu, 0x229eu, 0xa8feu, 0xa883u, 0xa0bfu, 0xa824u, 0xa317u, 0x227au, 0xa597u, 0x263eu, 0x2481u, 0x9b4du, 0x1ab6u, 0x9f44u, 0x23a5u,
  0x9c5fu, 0xa34eu, 0x2781u, 0xa814u, 0x9c12u, 0x1d4au, 0x282eu, 0xa6c7u, 0xa2c2u, 0x1f06u, 0x22eeu, 0x166fu, 0x0aeau, 0x1e1bu, 0xa46au, 0x27abu,
  0x26cau, 0xa999u, 0x9922u, 0xa8c9u, 0x0c1du, 0x97beu, 0x9e3au, 0xa8d2u, 0xa90du, 0xa0abu, 0xa577u, 0xa654u, 0x28b1u, 0xa6fbu, 0xa8e6u, 0xa817u,
  0x20fbu, 0x238bu, 0x2827u, 0xa51au, 0xa058u, 0x1fd7u, 0xa3f8u, 0x1558u, 0xa7a4u, 0xa992u, 0xa012u, 0xa3cau, 0x1eb8u, 0xa8b0u, 0x220au, 0x2768u,
  0xa4b9u, 0x99f7u, 0xa74du, 0xa6e7u, 0xa0d8u, 0xa6e6u, 0xa70eu, 0x28e4u, 0xa05cu, 0x1bd0u, 0x269bu, 0xa699u, 0xa6fau, 0xa4bdu, 0x1e88u, 0xa93du,
  0x28e3u, 0xa6deu, 0xa48bu, 0xa355u, 0xa8b8u, 0x1f32u, 0x202du, 0x24d8u, 0xaa3fu, 0xa56eu, 0x2878u, 0xa751u, 0x2858u, 0x264eu, 0xa37fu, 0xa488u,
  0x98eau, 0x2596u, 0x1620u, 0x9c3du, 0x28f3u, 0x2462u, 0x256eu, 0x172au, 0xa4dau, 0x9ecau, 0xa530u, 0xa69cu, 0xa832u, 0x238cu, 0xa211u, 0x2902u,
  0x288bu, 0xa672u, 0x96b6u, 0xa90au, 0xa3cau, 0xa084u, 0x9c67u, 0xa8bfu, 0xa416u, 0xa8eau, 0x1a99u, 0xa696u, 0xa4d1u, 0x251eu, 0x2310u, 0x2578u,
  0x25f4u, 0x2904u, 0xa696u, 0x1efeu, 0x1a44u, 0x2603u, 0x208fu, 0x22f8u, 0x1e5du, 0x24c2u, 0x275fu, 0x2671u, 0x9e54u, 0xa88cu, 0xa8d4u, 0x2910u,
  0x268bu, 0x2858u, 0xa567u, 0x9653u, 0xa391u, 0x243bu, 0xa788u, 0xa8b0u, 0xa6e8u, 0xa0b4u, 0xa9dau, 0x21ebu, 0xa863u, 0xa6e1u, 0x8f78u, 0x2752u,
  0xa37bu, 0xa83fu, 0x2859u, 0xa00eu, 0x10cdu, 0xa884u, 0x9c03u, 0x2780u, 0xa4a5u, 0xa424u, 0xa824u, 0x1230u, 0xa370u, 0xa9c7u, 0xa49du, 0x1d63u,
  0xa4b8u, 0xa484u, 0x2732u, 0x21b5u, 0xa2abu, 0x24aeu, 0x283fu, 0x25b9u, 0x9499u, 0xa252u, 0x0daau, 0x2868u, 0x9ae7u, 0xa984u, 0xa978u, 0x26afu,
  0x2556u, 0x1ebcu, 0x1b15u, 0xa473u, 0x26deu, 0xa9b0u, 0xa8cfu, 0xa82eu, 0x9cd1u, 0x1e9fu, 0x28c8u, 0xa5d0u, 0x235du, 0x2720u, 0x246bu, 0x2818u,
  0x27d1u, 0x0ce6u, 0xa3acu, 0xa4d9u, 0xa45eu, 0x9cd0u, 0x2533u, 0x9ceeu, 0x295au, 0x280bu, 0x975eu, 0xa708u, 0x2602u, 0x2458u, 0x2824u, 0x1a70u,
  0xa099u, 0x1f96u, 0x1a39u, 0xa71au, 0x1b35u, 0x941bu, 0xa98fu, 0x28c1u, 0x26b0u, 0xa2cdu, 0x28c5u, 0x214bu, 0xa24cu, 0xa828u, 0x2652u, 0xa985u,
  0xa87fu, 0x24e7u, 0x1f23u, 0x209cu, 0xa31du, 0x271fu, 0x24d9u, 0x1ce0u, 0x28d0u, 0xa901u, 0x20f7u, 0xa2b0u, 0x2990u, 0xa713u, 0xa695u, 0x26fcu,
  0x9478u, 0xa078u, 0xa836u, 0xa882u, 0x2070u, 0xa644u, 0x9f91u, 0x2407u, 0x2430u, 0xa8f4u, 0x2644u, 0x2468u, 0x270cu, 0xa432u, 0xa453u, 0xa85cu,
  0xa22cu, 0xa142u, 0xa933u, 0xa4ceu, 0x244au, 0x254au, 0x2191u, 0x247au, 0x260fu, 0xa825u, 0x20a6u, 0xa453u, 0x2062u, 0x9c9bu, 0x20ccu, 0x22cdu,
  0x9effu, 0xa3b2u, 0xa686u, 0x90d9u, 0xa6a1u, 0xa8cfu, 0xa8d4u, 0x260fu, 0xa5ceu, 0xa87au, 0x21b9u, 0x28f3u, 0x28bdu, 0xa09du, 0xa429u, 0x2623u,
  0xa9cdu, 0x1c1eu, 0xa303u, 0xa097u, 0xa102u, 0xa8b7u, 0x23d8u, 0xa1dbu, 0x0f64u, 0x9eb2u, 0xa4c1u, 0x2362u, 0x15f7u, 0xa0aau, 0x25efu, 0xa8bau,
  0x9d34u, 0x226du, 0x2336u, 0x265cu, 0x94cfu, 0x184cu, 0x27c0u, 0x249du, 0xa85bu, 0xa4fcu, 0x9ff4u, 0xa20cu, 0xa916u, 0x2394u, 0xa987u, 0x2623u,
  0x28c8u, 0xa03cu, 0xa138u, 0x2245u, 0xa90bu, 0xa8b5u, 0x24bdu, 0x1db2u, 0x1c03u, 0xa530u, 0x2475u, 0xa13du, 0xa3ffu, 0xa74bu, 0x20c2u, 0x2497u,
  0x1f5bu, 0xa699u, 0x2657u, 0x268fu, 0xa8ceu, 0x9c56u, 0x8be2u, 0xa08au, 0x24c7u, 0x1483u, 0x28ddu, 0x9d18u, 0x10cau, 0x2370u, 0x21ceu, 0xa7ebu,
  0xa61eu, 0xa87eu, 0x25b6u, 0x1df8u, 0xaa06u, 0x10ddu, 0x24ebu, 0x275eu, 0x20e5u, 0xa8dbu, 0x2518u, 0xa221u, 0xa258u, 0xa61eu, 0x2833u, 0xa292u,
  0x9092u, 0xa836u, 0x28ceu, 0x889cu, 0xa604u, 0xa307u, 0xa5f3u, 0x1a78u, 0xa102u, 0xa5b6u, 0xa415u, 0x23ecu, 0x278fu, 0x2616u, 0x281fu, 0xa48bu,
  0xa50fu, 0x1ea1u, 0xa59fu, 0x224au, 0xa79eu, 0x230eu, 0x2352u, 0x24e5u, 0x2422u, 0x25feu, 0xa376u, 0x2569u, 0x23fau, 0x22d2u, 0x28ddu, 0xa3fdu,
  0xa7a6u, 0xa889u, 0x2494u, 0x9a5bu, 0xa036u, 0x27f9u, 0xa359u, 0xa63eu, 0x230fu, 0xa3d6u, 0xa189u, 0xa83eu, 0xa29du, 0x1cb3u, 0xa8e4u, 0x220du,
  0x2763u, 0xa513u, 0xa545u, 0xa759u, 0xa8a9u, 0xa8d9u, 0xa471u, 0xa4beu, 0xa871u, 0xa5bcu, 0x2824u, 0xa959u, 0x2804u, 0x9d9du, 0x980cu, 0x1ea9u,
  0x289fu, 0x1d41u, 0x28bfu, 0xa357u, 0x20c7u, 0x2852u, 0xa689u, 0xa5aau, 0x2871u, 0x28e3u, 0x2809u, 0xa7a8u, 0x9db6u, 0xa9b7u, 0xa20bu, 0x2597u,
  0xa333u, 0xa86au, 0xa993u, 0x2518u, 0xa8c4u, 0x9b5du, 0x9d6eu, 0xa4b7u, 0x202fu, 0x28bau, 0x1a6eu, 0x28fau, 0xa421u, 0x23a2u, 0x2554u, 0xa038u,
  0x9da1u, 0x235fu, 0xa52eu, 0x286cu, 0xa688u, 0xa630u, 0xa6b5u, 0x2802u, 0xa280u, 0x26acu, 0xa8ecu, 0x202fu, 0x261cu, 0xa963u, 0xa88fu, 0xa472u,
  0x1487u, 0x9fd9u, 0x22a9u, 0x284eu, 0xa4edu, 0xa7d0u, 0x2649u, 0x1dbbu, 0xa0f9u, 0x256cu, 0x99bau, 0x279eu, 0x2648u, 0x1b86u, 0x1e06u, 0xa91fu,
  0x2609u, 0x9a7au, 0xa480u, 0x8c4eu, 0x2b32u, 0x27d5u, 0x250eu, 0x1c2fu, 0x217bu, 0x236cu, 0x263du, 0x2809u, 0xa909u, 0x12d0u, 0xa554u, 0x276bu,
  0xa90eu, 0xa885u, 0x1fa2u, 0x2048u, 0xa3b4u, 0xa80cu, 0x2753u, 0xa11bu, 0xa841u, 0x287fu, 0x267cu, 0xa88au, 0xa8d7u, 0xa89au, 0xa541u, 0x216bu,
  0xa908u, 0x24a8u, 0x217bu, 0x2b7du, 0x1a6au, 0x1d8fu, 0xa4e2u, 0x1e90u, 0x2915u, 0x287cu, 0x2814u, 0x1946u, 0xa6b9u, 0x255au, 0xa790u, 0x1f7au,
  0x24fcu, 0x2069u, 0x223eu, 0x9b0fu, 0x8f5au, 0xa60cu, 0x2828u, 0x265du, 0x28e4u, 0x23c1u, 0x24bcu, 0x286du, 0x27eeu, 0xa9c5u, 0x2918u, 0x290fu,
  0xa538u, 0x1ab2u, 0x2469u, 0xa481u, 0x24c5u, 0x2803u, 0xa3ffu, 0xa832u, 0x2805u, 0xa175u, 0x26f0u, 0x1b8bu, 0xa716u, 0xa90eu, 0x21a3u, 0xa446u,
  0x27ebu, 0x2829u, 0x2616u, 0xa8eeu, 0x283eu, 0x256bu, 0x270du, 0xa490u, 0x19f9u, 0x17d6u, 0xa95fu, 0x2206u, 0x24e0u, 0xa6f7u, 0x27cdu, 0x9cb4u,
  0xa18cu, 0xa95au, 0xa22fu, 0x2661u, 0xa43fu, 0x2644u, 0x26afu, 0x2878u, 0xa805u, 0xa024u, 0x999du, 0xa6feu, 0x259bu, 0x0f9bu, 0xa485u, 0x25d7u,
  0xa4d9u, 0xa8c6u, 0x257eu, 0xa122u, 0x1d46u, 0x9e32u, 0x2536u, 0x238du, 0x24f9u, 0xa234u, 0xa580u, 0x2404u, 0x2a51u, 0x17ffu, 0xa65du, 0x2786u,
  0xa909u, 0xa820u, 0xa596u, 0xa2feu, 0xa668u, 0x2152u, 0x264eu, 0x1eaau, 0xa22eu, 0xa610u, 0x28d4u, 0xabc5u, 0x97ddu, 0xa63au, 0xa286u, 0x24b7u,
  0xa78au, 0x2345u, 0xa8f6u, 0xa441u, 0xa464u, 0x2231u, 0xa8c9u, 0xa616u, 0xa671u, 0x9a7eu, 0x2239u, 0xa8e3u, 0x1e7bu, 0xa7e4u, 0x1e67u, 0x24edu,
  0xa10fu, 0xa1e3u, 0x2255u, 0x9f80u, 0x9edcu, 0x22d6u, 0xa8e8u, 0xa8e2u, 0xa46du, 0xa79du, 0xa678u, 0xaab8u, 0x243au, 0x288du, 0xa8f7u, 0x2693u,
  0x24b9u, 0xa44du, 0xa6c6u, 0xa740u, 0x2429u, 0x9c6du, 0x262eu, 0x2381u, 0x2301u, 0x980du, 0x1ff5u, 0x21bcu, 0x26fbu, 0x9b51u, 0xa7a7u, 0xa3dbu,
  0x2187u, 0xa456u, 0x1f8au, 0x99e1u, 0x1cbcu, 0x280eu, 0x2278u, 0xa9b1u, 0x29cfu, 0xa83au, 0x28ffu, 0x259eu, 0x281au, 0x25cdu, 0xa73fu, 0x1fcdu,
  0x2909u, 0xa69cu, 0x9e21u, 0xa710u, 0x2835u, 0xa523u, 0xa699u, 0xa290u, 0xa869u, 0x2713u, 0x9da9u, 0x2978u, 0xa40eu, 0x2014u, 0x1c80u, 0xa431u,
  0x266fu, 0x261cu, 0xa629u, 0x2557u, 0xa8d4u, 0x2354u, 0xa461u, 0xa06du, 0xa0d1u, 0x1d38u, 0x256fu, 0x26adu, 0x256cu, 0x22f0u, 0x219cu, 0xa345u,
  0x2727u, 0x24bfu, 0xa146u, 0xa58fu, 0x24cdu, 0xa60du, 0xa76du, 0x22abu, 0x2820u, 0x9de1u, 0x2800u, 0x28c7u, 0xa226u, 0x222du, 0xa82fu, 0xa57eu,
  0x2542u, 0xa70cu, 0xa456u, 0xa4acu, 0xa023u, 0x9ea6u, 0x1d2eu, 0xa974u, 0x1100u, 0xa880u, 0x26aeu, 0x2455u, 0xa52au, 0x247cu, 0xa6a5u, 0xa647u,
  0xa91eu, 0x281au, 0x1c70u, 0x24f1u, 0x2530u, 0xa1feu, 0x2545u, 0xa8fbu, 0xa10au, 0x213cu, 0x281eu, 0x9eb9u, 0xa85au, 0x268cu, 0xa668u, 0x24dcu,
  0x273fu, 0xa8c5u, 0xa38bu, 0xa3c7u, 0xa94eu, 0x2180u, 0x25c8u, 0x2726u, 0xa493u, 0x9a2du, 0xa628u, 0xaba7u, 0x22d6u, 0x2142u, 0xa8dau, 0xa679u,
  0xa5bdu, 0x201au, 0x2620u, 0x2634u, 0x2275u, 0xa4a8u, 0x9e33u, 0x828eu, 0x20b2u, 0x25e1u, 0xa5cbu, 0x1bd6u, 0x27e0u, 0x9db1u, 0xa917u, 0x267eu,
  0xa586u, 0xa8c0u, 0xa4c9u, 0xa32bu, 0xa820u, 0x249fu, 0xa996u, 0xa82bu, 0xa292u, 0x23b1u, 0x24cbu, 0x2212u, 0xa97du, 0xa971u, 0x98e6u, 0x2409u,
  0x20f2u, 0x24ebu, 0x2457u, 0x24f5u, 0xa70fu, 0x2875u, 0x2875u, 0x20bau, 0x1a76u, 0xa3f0u, 0x16ceu, 0x2540u, 0x269eu, 0xa690u, 0xa81cu, 0xa9a6u,
  0x24abu, 0x2247u, 0xa3a1u, 0x1990u, 0x97a9u, 0x2327u, 0xa5d5u, 0xa369u, 0x9e78u, 0xa420u, 0x18f1u, 0xa40fu, 0xa361u, 0x21a3u, 0x2838u, 0xa7a1u,
  0x241fu, 0x2653u, 0xa792u, 0xa40du, 0xa60bu, 0x2830u, 0x26e7u, 0xa495u, 0x1fdau, 0xa823u, 0x9c71u, 0xa9d1u, 0xa448u, 0xa867u, 0xa6efu, 0x205cu,
  0xa174u, 0x236cu, 0x2878u, 0xa4d6u, 0x9e6au, 0xa07fu, 0x274fu, 0x9c1bu, 0x1a90u, 0x207fu, 0x2303u, 0x25b7u, 0x9e39u, 0x240cu, 0xa1c8u, 0xa01eu,
  0x24f3u, 0xa900u, 0xa18bu, 0xa41fu, 0xa4c8u, 0x2801u, 0x9bc4u, 0xa5e1u, 0xa304u, 0x9922u, 0x2839u, 0xa489u, 0xa935u, 0x257du, 0x2799u, 0xa1e8u,
  0x2465u, 0x1d2au, 0xa4d0u, 0xa6deu, 0x27d1u, 0x27b5u, 0x1e55u, 0x279bu, 0x2054u, 0x99b9u, 0xa976u, 0xab2du, 0xa5d4u, 0xa7adu, 0x2484u, 0xa798u,
  0xa884u, 0x2597u, 0xa792u, 0xa8e3u, 0x1fecu, 0xa918u, 0x26a9u, 0x24ebu, 0xa824u, 0x23eau, 0xa703u, 0xaa9bu, 0xa853u, 0xa8b7u, 0x9d81u, 0x279du,
  0x1e66u, 0x91e8u, 0x9b5eu, 0xa78du, 0x2162u, 0x2774u, 0xa990u, 0xa75fu, 0xa313u, 0x2385u, 0x242bu, 0x2820u, 0x21b6u, 0x2886u, 0xa888u, 0x27c8u,
  0xa037u, 0xa0acu, 0x1e50u, 0x252du, 0x2903u, 0xa5f6u, 0x2095u, 0xa110u, 0x1897u, 0x2746u, 0xa655u, 0xa583u, 0xa915u, 0xa4ccu, 0x276cu, 0xa8d4u,
  0x9d82u, 0xa4e4u, 0x9fe5u, 0x265au, 0xa4bdu, 0x287cu, 0x1ec5u, 0xa8f0u, 0x223fu, 0xa142u, 0xa368u, 0xa5d9u, 0x97dau, 0x28c8u, 0xa78fu, 0x28e9u,
  0xa38cu, 0xa94bu, 0x16a0u, 0x9ecbu, 0x283fu, 0x2450u, 0x1c83u, 0x9edau, 0x218du, 0x25dau, 0x9e6bu, 0x22b1u, 0xa4adu, 0xa410u, 0xa8b0u, 0x278du,
  0x1b39u, 0x283au, 0x27cbu, 0xa6b4u, 0x1829u, 0xa736u, 0x2295u, 0xa6beu, 0x25e4u, 0xa347u, 0xa55fu, 0x9d97u, 0xa136u, 0x1cd7u, 0x28b4u, 0x1d40u,
  0x9f4bu, 0x230eu, 0x2904u, 0x15a1u, 0xa8fau, 0x27a6u, 0x27f4u, 0x2606u, 0x181bu, 0x2807u, 0xa498u, 0x9ed7u, 0xa4a7u, 0x15e9u, 0x9ec2u, 0xa6a5u,
  0xa84eu, 0x2523u, 0x1bb0u, 0xa882u, 0x22ccu, 0x27c2u, 0x2889u, 0x24f7u, 0xa909u, 0xa224u, 0x240fu, 0xa6a5u, 0x248fu, 0x259au, 0xa81cu, 0x18afu,
  0x1ca3u, 0x22f7u, 0xa823u, 0x2862u, 0x25e0u, 0xa68bu, 0xa7a2u, 0x2498u, 0x28deu, 0x2818u, 0x2885u, 0x2829u, 0x21d1u, 0xa084u, 0x9dc1u, 0xa4bau,
  0x20a1u, 0x9946u, 0x27fbu, 0xa7fau, 0xa33cu, 0xa845u, 0x92beu, 0xa850u, 0xa730u, 0xa665u, 0xa71fu, 0xa821u, 0xa1bcu, 0x277bu, 0xa4c9u, 0xa829u,
  0xa757u, 0x26c5u, 0xa2a4u, 0xa7adu, 0x20dcu, 0xa7a1u, 0x2811u, 0x861cu, 0x2801u, 0x2903u, 0x28c7u, 0x95e1u, 0xa3a2u, 0x1cfcu, 0xa6beu, 0x2616u,
  0x250bu, 0xa89eu, 0x184au, 0x2812u, 0x26a0u, 0xa2bbu, 0x27aau, 0x2836u, 0x16d9u, 0x26ecu, 0x2458u, 0x2805u, 0xa5aeu, 0xa0acu, 0x9cf2u, 0xa2e9u,
  0x9d16u, 0xa826u, 0x27d7u, 0x9cacu, 0xa216u, 0x2839u, 0x268du, 0xa23au, 0xa879u, 0xa708u, 0xa8d6u, 0xa4eau, 0xa576u, 0x28f0u, 0x2628u, 0xa84fu,
  0x25a9u, 0xa863u, 0xa60du, 0x1ac7u, 0x221au, 0x189bu, 0x2258u, 0x0238u, 0xa96fu, 0x2285u, 0x9fdcu, 0x9e5eu, 0xa0ecu, 0x26c4u, 0x9f0au, 0xa551u,
  0xa927u, 0xa9c1u, 0x241bu, 0x24abu, 0xa03du, 0xa99au, 0x280cu, 0xa8a1u, 0xa4d1u, 0xa2f8u, 0x2299u, 0xa455u, 0x2849u, 0x2681u, 0xa57eu, 0x1f72u,
  0xa429u, 0x24b9u, 0x173au, 0x257fu, 0xa361u, 0xa698u, 0x2155u, 0xa530u, 0x17ccu, 0x9f5bu, 0x1db1u, 0x91b5u, 0x9a76u, 0xa460u, 0xa7f7u, 0x2324u,
  0xa688u, 0xa378u, 0x2896u, 0xa770u, 0x2182u, 0x1d64u, 0x26afu, 0x2796u, 0xa5e5u, 0x257eu, 0x265bu, 0xa92au, 0x27a5u, 0xa44bu, 0x1e0fu, 0xa7f7u,
  0x247cu, 0x22a2u, 0x2832u, 0x9e10u, 0xa6c0u, 0xa273u, 0x21eeu, 0xa22fu, 0xa8ceu, 0x28fbu, 0x24f2u, 0xa1e4u, 0xa09eu, 0xa4a1u, 0x2545u, 0x2708u,
  0xa8c5u, 0x224fu, 0xa0c6u, 0xa15eu, 0xa33eu, 0x2227u, 0x25ceu, 0x19d3u, 0x26ceu, 0xa711u, 0x98b6u, 0x92efu, 0xa9d7u, 0xa0e7u, 0x1cdcu, 0x27ddu,
  0x2366u, 0x2744u, 0x28bfu, 0x27b2u, 0x203bu, 0xa803u, 0x9994u, 0x1638u, 0xa6b7u, 0xa312u, 0x9db1u, 0xa618u, 0xa4f9u, 0xa11eu, 0xa940u, 0xa852u,
  0x2725u, 0x2760u, 0x26d0u, 0x1c7fu, 0x9dc3u, 0x283au, 0x9dd4u, 0x241fu, 0x2572u, 0xa82eu, 0x1667u, 0xa8ddu, 0x28c7u, 0xa28cu, 0x2210u, 0xa4feu,
  0x2789u, 0xaa2fu, 0x2246u, 0xa558u, 0xa237u, 0xa907u, 0x2813u, 0x26a2u, 0xa39bu, 0xa69cu, 0x1fe9u, 0x2836u, 0xa705u, 0x9661u, 0xa049u, 0xa058u,
  0x9e0bu, 0x2136u, 0xa900u, 0xa55du, 0xa922u, 0xa8edu, 0x287du, 0xa8f7u, 0xa083u, 0x25d6u, 0x26b7u, 0x88b7u, 0xa9acu, 0x2457u, 0xa1a0u, 0xa62bu,
  0x2492u, 0x2018u, 0x2736u, 0x8c1bu, 0x2006u, 0xa6deu, 0xa643u, 0xa13bu, 0xa82eu, 0x1d40u, 0x2247u, 0xa91fu, 0x9febu, 0x2551u, 0x12c3u, 0xa66bu,
  0x2804u, 0x2265u, 0x98d2u, 0xa36au, 0xa8abu, 0x283fu, 0xa9b1u, 0xa153u, 0x1cc7u, 0xa1a2u, 0x1fb4u, 0xa49au, 0x2712u, 0x9e9du, 0x21d9u, 0xa41eu,
  0xa2a4u, 0x28cbu, 0x9c8du, 0x2436u, 0xa67du, 0xa639u, 0x2853u, 0x2000u, 0x2453u, 0x2302u, 0xa585u, 0x24d4u, 0xa73eu, 0xa35bu, 0x9cbau, 0xa4e9u,
  0xa1a6u, 0x20a0u, 0xa6dcu, 0x2721u, 0x25e4u, 0x2611u, 0xa357u, 0x0984u, 0xa7aau, 0x2757u, 0x2741u, 0xa5aeu, 0xa5c8u, 0xa6deu, 0xa85eu, 0x1bf3u,
  0x2608u, 0x2650u, 0xa6e3u, 0x2656u, 0xa475u, 0x26e2u, 0x2410u, 0xa519u, 0xa18cu, 0x28f0u, 0xa78au, 0xa8f0u, 0x21b2u, 0x27c3u, 0x276bu, 0x2514u,
  0xa720u, 0xa8b3u, 0x17f3u, 0x981bu, 0x98f1u, 0x9e70u, 0x236au, 0xa83du, 0x1836u, 0xa896u, 0x0a7cu, 0xa7f8u, 0x167cu, 0xa6c4u, 0xa6a3u, 0xa82bu,
  0x289bu, 0x204eu, 0x24d5u, 0x99edu, 0xa069u, 0x245cu, 0xa7a6u, 0xa8d0u, 0x2635u, 0x1cfbu, 0x2905u, 0xa71au, 0xa7dfu, 0x9a28u, 0xa5fbu, 0xa82eu,
  0x95bfu, 0xa2f1u, 0xa743u, 0x20b6u, 0xa476u, 0x29d6u, 0xa8f7u, 0x8826u, 0xa837u, 0xa4bbu, 0xa524u, 0xa43eu, 0xa4e5u, 0x9f2cu, 0x2555u, 0x2510u,
  0xa812u, 0xa86au, 0x2313u, 0x2895u, 0xa4d7u, 0x271cu, 0x2901u, 0x2835u, 0xa575u, 0xa67du, 0x28e4u, 0xa14cu, 0x1f23u, 0x2719u, 0xa7a7u, 0x1ff8u,
  0x1cb1u, 0xa9f1u, 0xa4ecu, 0x283du, 0x1480u, 0x2517u, 0x2645u, 0x22c3u, 0x9cfau, 0x9869u, 0x9a1fu, 0x2074u, 0xa57du, 0x29d3u, 0x1de4u, 0x2085u,
  0xa30du, 0x1b2eu, 0x26b8u, 0xa58du, 0x1b12u, 0xa311u, 0x2876u, 0x242fu, 0xaaf2u, 0x2664u, 0x1d03u, 0xa871u, 0x9b9du, 0xa076u, 0x2068u, 0xa11fu,
  0x9d80u, 0x269du, 0x2289u, 0x1c48u, 0x9a53u, 0x29a8u, 0x2401u, 0x1ce2u, 0xa40cu, 0xa950u, 0xa8f3u, 0x284au, 0xa826u, 0x98c6u, 0xaa00u, 0x225fu,
  0x9ec8u, 0xa85eu, 0x2800u, 0x223bu, 0xa647u, 0x263fu, 0x261cu, 0xa8eeu, 0xa607u, 0x1fb7u, 0xa91fu, 0xa966u, 0x21c5u, 0xa85au, 0xa55fu, 0x233bu,
  0xa17au, 0x259bu, 0xa80cu, 0x1534u, 0x24b7u, 0x28c2u, 0x2080u, 0xa6feu, 0xa75du, 0xa14bu, 0x28d2u, 0x252au, 0xa5cfu, 0x1ffcu, 0x95adu, 0x17b0u,
  0x9e2au, 0xa714u, 0x286au, 0xa771u, 0xa17eu, 0xa7b5u, 0x248bu, 0xa80bu, 0x2854u, 0x9a72u, 0xa36fu, 0x28e3u, 0x9e5fu, 0xa445u, 0x25cdu, 0x2183u,
  0xa73bu, 0x27adu, 0x253au, 0xa8b3u, 0x2179u, 0xa982u, 0x2038u, 0xa205u, 0xa1bcu, 0xa888u, 0xa374u, 0x9f72u, 0x9f22u, 0x9ec9u, 0x9eebu, 0xa5e5u,
  0x200bu, 0xa83du, 0xa298u, 0x1df6u, 0xa41eu, 0x1b43u, 0xa966u, 0xa87du, 0x1e1cu, 0xa51du, 0xa675u, 0xa2feu, 0xa58eu, 0x251bu, 0x21e7u, 0x2575u,
  0xa9adu, 0x9e61u, 0x1fb5u, 0x2665u, 0x1e57u, 0xa57du, 0xa813u, 0x2852u, 0xa83du, 0x227eu, 0x26c7u, 0xa73eu, 0x20f3u, 0x234bu, 0x1ff6u, 0xa589u,
  0x24a2u, 0xa824u, 0x24b6u, 0x9d87u, 0xa8a9u, 0x22e6u, 0x2418u, 0x26a3u, 0xa144u, 0xa31au, 0x280cu, 0x28b7u, 0x1c22u, 0x81f4u, 0x1dceu, 0x21c4u,
  0xa1adu, 0x2867u, 0x21cdu, 0xa021u, 0x278cu, 0xa10du, 0xa4a4u, 0x269cu, 0xa383u, 0x24c9u, 0x2327u, 0x25acu, 0xa6d0u, 0xa604u, 0xa5a4u, 0x2886u,
  0x284au, 0x28b3u, 0xa15fu, 0x1e40u, 0x2332u, 0x2911u, 0x2702u, 0xa881u, 0xa562u, 0x9affu, 0x99b6u, 0xa5b8u, 0x1fe0u, 0x2808u, 0xa552u, 0xa09du,
  0xa308u, 0x272fu, 0xa76eu, 0x2580u, 0xa89au, 0xa733u, 0x2553u, 0x1d23u, 0x2604u, 0x2882u, 0x11feu, 0x1f2fu, 0x9e75u, 0xa7ebu, 0x1c90u, 0x1ef1u,
  0x1da2u, 0x2856u, 0xa535u, 0x28c7u, 0x257cu, 0x1c92u, 0xa4c1u, 0xa6feu, 0x1e7du, 0xa040u, 0x25f5u, 0x227au, 0x9cffu, 0xa89cu, 0x1c4du, 0xa6eeu,
  0xa8deu, 0x27e7u, 0x2764u, 0x2097u, 0xa3fcu, 0x9d05u, 0xa8bdu, 0xa814u, 0x24a0u, 0x0ddfu, 0x2842u, 0x28b9u, 0x9ed1u, 0x24d1u, 0xa189u, 0xa742u,
  0x2003u, 0x2492u, 0xa16eu, 0x25a5u, 0x2439u, 0x9fd9u, 0x9ec6u, 0xa6ccu, 0x9f95u, 0xa167u, 0xa5efu, 0xa6edu, 0xa6e5u, 0x28d4u, 0xa3ddu, 0xa622u,
  0x26f5u, 0x27ffu, 0xa84bu, 0x28c2u, 0x2840u, 0xa50cu, 0x27d1u, 0xa120u, 0x250bu, 0x2494u, 0x2380u, 0xa78au, 0x88c4u, 0x2516u, 0xa105u, 0xa753u,
  0x286au, 0xa6d8u, 0x207cu, 0x284fu, 0x1df6u, 0x284au, 0x2053u, 0x2439u, 0x1fc0u, 0xa8f3u, 0x280du, 0x27f4u, 0xa750u, 0xa657u, 0x209eu, 0x2851u,
  0x0fc6u, 0xa8e4u, 0xa333u, 0x2731u, 0x25e9u, 0xa37fu, 0xa448u, 0x2817u, 0xa683u, 0x284au, 0x9f1fu, 0x2631u, 0xa8eeu, 0x26f7u, 0x23afu, 0x2826u,
  0x1f20u, 0x269au, 0x282eu, 0x2037u, 0xa005u, 0x1afdu, 0x248eu, 0x1eadu, 0x9163u, 0x2745u, 0x283du, 0xa4acu, 0x97c8u, 0x2850u, 0x286eu, 0xa376u,
  0x1f1bu, 0x19aau, 0x9e38u, 0x288eu, 0xa847u, 0xa831u, 0xa725u, 0x25b9u, 0x25e8u, 0xa642u, 0xa42eu, 0xa4d2u, 0xa2f6u, 0xa49fu, 0x1e7du, 0xa786u,
  0x2468u, 0x28e9u, 0x2602u, 0xa1a5u, 0xa655u, 0xa153u, 0x27d8u, 0x217fu, 0x269fu, 0x245cu, 0xa77au, 0xa45bu, 0xa73fu, 0xa34du, 0x1cc1u, 0x1e56u,
  0x28e8u, 0x2220u, 0x1ce3u, 0x2452u, 0x2892u, 0x2611u, 0x9580u, 0x2745u, 0x2269u, 0x2465u, 0xa8c2u, 0x284cu, 0x1d61u, 0x2041u, 0x26c2u, 0x286du,
  0x22e8u, 0x1c0fu, 0x24ffu, 0x270eu, 0x2567u, 0x288cu, 0x28e4u, 0x1c68u, 0x2719u, 0x2502u, 0x2839u, 0x2334u, 0xa81fu, 0x26c5u, 0x26e6u, 0xa48eu,
  0x20f2u, 0x980du, 0x20dau, 0x28b3u, 0xa5dfu, 0x28d8u, 0x257du, 0x9feau, 0x28bau, 0x17b6u, 0x1e19u, 0x1856u, 0x288fu, 0x28a3u, 0x2511u, 0x2701u,
  0x255cu, 0x2927u, 0x9689u, 0x2338u, 0x24adu, 0x23efu, 0x2529u, 0xa42bu, 0x9d63u, 0x1c5du, 0xa7c7u, 0xa8bbu, 0x239fu, 0xa7eeu, 0x9e13u, 0x9cb3u,
  0x28c9u, 0xa029u, 0x209au, 0xa2cfu, 0xa828u, 0x2be5u, 0x9e41u, 0xa9bfu, 0xa900u, 0xa459u, 0x1b47u, 0x2381u, 0x1f94u, 0xa59du, 0x2644u, 0x2946u,
  0xa0e9u, 0x2493u, 0x1e73u, 0x1db1u, 0xa703u, 0x2358u, 0x23c2u, 0x241au, 0x282fu, 0xaa32u, 0x276bu, 0xa89du, 0x27dau, 0x175eu, 0xa894u, 0x25b2u,
  0xa74au, 0xa6dfu, 0xa20eu, 0xa40au, 0x24b2u, 0x276eu, 0x2231u, 0x242cu, 0xa93fu, 0xa60bu, 0xa277u, 0x2134u, 0x9ed6u, 0x259du, 0xa896u, 0xa8a4u,
  0xa4d5u, 0x1ddfu, 0xa8d7u, 0x1d98u, 0xa6cfu, 0xa8f9u, 0xa84eu, 0x2335u, 0x22c5u, 0x2843u, 0x19dcu, 0x9f64u, 0x244bu, 0x2427u, 0xa1bbu, 0xa851u,
  0x9e5eu, 0x24f7u, 0xa5d1u, 0x27f9u, 0xa7d5u, 0xa170u, 0xa8dfu, 0xa50cu, 0x22bdu, 0x2187u, 0x27fbu, 0x242du, 0x194au, 0xa4eau, 0x1f31u, 0x24c7u,
  0x256eu, 0xa85eu, 0x9e7au, 0x9e6du, 0x2084u, 0xa90eu, 0xa799u, 0xa683u, 0xa3f5u, 0x9fb9u, 0xa8d6u, 0x28bbu, 0x21a8u, 0xa7d1u, 0x2008u, 0xa863u,
  0xa8bdu, 0x270du, 0x2168u, 0x9c8fu, 0x266eu, 0xa8d1u, 0xa75bu, 0x1f51u, 0x120eu, 0xa211u, 0x283cu, 0xa8dfu, 0x231fu, 0xa4cfu, 0xa58bu, 0x24a9u,
  0x1eddu, 0xa353u, 0x2766u, 0x1b40u, 0xa927u, 0xa4dcu, 0x1c7au, 0x1f66u, 0x261cu, 0xa037u, 0xa59du, 0xa89du, 0x217bu, 0xa4edu, 0xa99bu, 0x2834u,
  0xa5e2u, 0x22dau, 0x2336u, 0xa6dau, 0xa180u, 0xa17eu, 0xa0abu, 0x23a8u, 0x297eu, 0x2178u, 0x2802u, 0xa0bdu, 0x240fu, 0x24ffu, 0xaac0u, 0x16b2u,
  0x99a1u, 0x23b9u, 0x9eb3u, 0x26ebu, 0xa9b9u, 0xa76bu, 0x98ddu, 0x1fe2u, 0x1c0du, 0xa8c1u, 0x9a24u, 0xa339u, 0x261du, 0xa8a8u, 0xa9a8u, 0xa133u,
  0x255cu, 0x2382u, 0xa923u, 0x1a0eu, 0x2687u, 0xa88du, 0x9d31u, 0xa6a5u, 0xa6f7u, 0x18b3u, 0x947du, 0xa1a3u, 0x287du, 0x2261u, 0xa917u, 0xa7aeu,
  0xa63au, 0x2511u, 0xa818u, 0x9e15u, 0x1dbeu, 0x2562u, 0x18c4u, 0xa8a9u, 0xa7deu, 0xa098u, 0xa7b1u, 0x1d5bu, 0x9c9fu, 0x9de5u, 0xa6a6u, 0xa805u,
  0xa41fu, 0x2773u, 0x1d34u, 0x285eu, 0x96c7u, 0x1a82u, 0x290eu, 0x1f63u, 0x2832u, 0x1a41u, 0xa0acu, 0x2626u, 0x248cu, 0x27eau, 0xa5c1u, 0x290au,
  0x9d06u, 0xa785u, 0xa8c2u, 0xa6adu, 0xa7ecu, 0x28b2u, 0xa123u, 0x1823u, 0x9febu, 0xa27bu, 0x2575u, 0x28f1u, 0x2859u, 0x282au, 0x9fbau, 0xa589u,
  0x272bu, 0xa259u, 0xa2f8u, 0xa3b6u, 0x22f7u, 0x920cu, 0x252fu, 0xa200u, 0xa4feu, 0x281cu, 0x28f9u, 0x262cu, 0x24eau, 0xa13eu, 0xa5a7u, 0xa158u,
  0xa7b7u, 0xa7b6u, 0x20abu, 0xa207u, 0x24f4u, 0x2068u, 0x264bu, 0x276fu, 0x224eu, 0x2502u, 0x273du, 0x1f4bu, 0x266bu, 0x2325u, 0xa85bu, 0x9e88u,
  0x2023u, 0xa60fu, 0xa9d6u, 0x9ef8u, 0xa279u, 0x261fu, 0x2632u, 0x2866u, 0xa109u, 0x95fdu, 0xa963u, 0x9fa7u, 0x26bau, 0x2722u, 0xa649u, 0x25c7u,
  0xa19fu, 0xa6a2u, 0xa269u, 0xa1abu, 0xa309u, 0x239eu, 0x9e87u, 0x285cu, 0xa791u, 0x2650u, 0xa491u, 0xa355u, 0xa631u, 0xa92cu, 0xa8c2u, 0x9bebu,
  0xa760u, 0xa320u, 0x21eau, 0xa96eu, 0xa8c2u, 0x240au, 0x25ebu, 0xa8f9u, 0xa050u, 0xa8a9u, 0x289fu, 0x2350u, 0x1c1du, 0x220bu, 0xa0c2u, 0xa5a2u,
  0xa838u, 0x1f4au, 0x1eb3u, 0xa13du, 0xa6b7u, 0x9debu, 0x2535u, 0x2806u, 0xa24eu, 0xa002u, 0xa3d2u, 0x2124u, 0xa3fdu, 0xa08au, 0xa004u, 0x2472u,
  0xa5c4u, 0x2714u, 0x0bcbu, 0x26cbu, 0xa631u, 0x1a1cu, 0x1d53u, 0xa042u, 0x1cd3u, 0xa565u, 0x22dau, 0xa17bu, 0x1facu, 0xa957u, 0xa63du, 0x2802u,
  0x2286u, 0xa86du, 0xa5ddu, 0xa4a7u, 0xa400u, 0xa8d5u, 0x98eeu, 0x26fcu, 0x2345u, 0x26dbu, 0x24cbu, 0xa426u, 0x29a7u, 0x99abu, 0xa43fu, 0x2479u,
  0x8b3cu, 0x1b1fu, 0x8d1au, 0xa666u, 0xa901u, 0xa9c3u, 0x2210u, 0x2172u, 0x254cu, 0x2536u, 0xa8a8u, 0xa53bu, 0x10acu, 0xa7d4u, 0x24a2u, 0xa487u,
  0xa17du, 0x28f0u, 0xa605u, 0xa7bcu, 0xa13du, 0xa625u, 0xa908u, 0xa851u, 0x2759u, 0xa482u, 0xa81cu, 0x21d7u, 0x20d8u, 0xa6c7u, 0xa06eu, 0x21c3u,
  0x2498u, 0x8e49u, 0x1ef6u, 0x284fu, 0xa0a3u, 0xa50bu, 0xa46au, 0x27b2u, 0xa7f8u, 0xa6f2u, 0x220bu, 0xa067u, 0xa9d3u, 0xa902u, 0xa3b6u, 0x27feu,
  0x1d4cu, 0xa956u, 0x280cu, 0x27eeu, 0xa30au, 0x24a6u, 0xa9a6u, 0x1c7eu, 0xa504u, 0xa41fu, 0x27b8u, 0x259fu, 0x1fa7u, 0x20c4u, 0xa511u, 0x2015u,
  0xa4a6u, 0x26c6u, 0x2457u, 0xa80bu, 0x24b0u, 0xa46au, 0xa593u, 0x9788u, 0x1e8du, 0xa432u, 0xa294u, 0x1dd8u, 0x287au, 0x252au, 0xa956u, 0xa951u,
  0xa380u, 0xa8eau, 0xa708u, 0x2873u, 0xa7aeu, 0xa877u, 0x2131u, 0x8fadu, 0x2880u, 0x273au, 0x277au, 0xa7cfu, 0x265du, 0x28dau, 0x9d87u, 0x2068u,
  0x24c1u, 0x27c5u, 0x9ccau, 0xa6b4u, 0x2542u, 0x9596u, 0xa5ecu, 0xa79cu, 0x2804u, 0x287bu, 0xa466u, 0x237cu, 0xa84eu, 0x26c1u, 0x92a4u, 0x25f3u,
  0xa0b1u, 0xa715u, 0xa63du, 0x2373u, 0xa80cu, 0x904cu, 0x2026u, 0x163au, 0x1a39u, 0x23fbu, 0x2064u, 0xa466u, 0x2622u, 0x1dbdu, 0x21c9u, 0xa33eu,
  0x9937u, 0x2748u, 0x247bu, 0xa919u, 0xa87eu, 0x03ecu, 0x27afu, 0xa8e5u, 0x2411u, 0xa037u, 0xa836u, 0xa6c4u, 0xa75fu, 0xa495u, 0xa247u, 0x267bu,
  0xa965u, 0xa8b0u, 0x2824u, 0x9a1eu, 0xa576u, 0xa543u, 0x2260u, 0x1c03u, 0x22bdu, 0x264du, 0x1c9bu, 0x26fau, 0xa29fu, 0xa7cfu, 0x2711u, 0x9826u,
  0x28a2u, 0x19f9u, 0xa1a8u, 0x2631u, 0xa858u, 0xa754u, 0x1333u, 0x2700u, 0x2a05u, 0xa740u, 0x22a2u, 0x20c9u, 0x268cu, 0x9f29u, 0xa76fu, 0x2840u,
  0xa07au, 0x923du, 0xa638u, 0x281au, 0x25f8u, 0x2736u, 0x1705u, 0xa83au, 0xa868u, 0x21adu, 0xa8c4u, 0x236eu, 0x2309u, 0xa4aau, 0xa120u, 0xa53fu,
  0xa97bu, 0x2740u, 0x25cfu, 0xa3b4u, 0xa68eu, 0x1a2fu, 0xa19bu, 0x1ddeu, 0x2826u, 0x2113u, 0xa802u, 0x2497u, 0xa0b7u, 0xa52au, 0xa434u, 0x2015u,
  0xa0c3u, 0xa7eeu, 0xa5c8u, 0x1e2fu, 0xa5acu, 0xa51fu, 0xa352u, 0xa87fu, 0x2418u, 0x2077u, 0xa3c5u, 0x2297u, 0x212au, 0x9f36u, 0xa198u, 0x2600u,
  0x257fu, 0x240au, 0xa666u, 0xa70cu, 0x2369u, 0xa7e4u, 0xa8a9u, 0x255bu, 0xa83cu, 0x287eu, 0x1fcbu, 0xa494u, 0xa172u, 0xa8aeu, 0x2574u, 0xa8feu,
  0xa748u, 0x9242u, 0x1905u, 0x284du, 0xa2b5u, 0xa211u, 0x24d7u, 0x9c0eu, 0x27adu, 0xa0c3u, 0x22b2u, 0x9d95u, 0x2080u, 0x263au, 0x26dcu, 0xa502u,
  0x274cu, 0x1edbu, 0xa812u, 0xa919u, 0xa76bu, 0x9a7fu, 0x285eu, 0x24c6u, 0xa8aau, 0xa8c1u, 0x283cu, 0x98f2u, 0x25adu, 0x2708u, 0x23adu, 0x9b5eu,
  0x22fcu, 0x2243u, 0xa503u, 0x1f79u, 0xa858u, 0x2814u, 0x9dcdu, 0x1c38u, 0x9bebu, 0xa88eu, 0x9d72u, 0xa3beu, 0x27cfu, 0x2082u, 0x217bu, 0x23f9u,
  0x189du, 0x26b4u, 0x24b8u, 0x2577u, 0xa736u, 0x237au, 0x2905u, 0xa917u, 0x9dd1u, 0x2943u, 0x2849u, 0x2826u, 0xa897u, 0xa460u, 0x9f48u, 0x2662u,
  0xa7dbu, 0x1ee5u, 0x1df2u, 0x27b9u, 0xa721u, 0xa815u, 0x2843u, 0xa5a6u, 0xa45eu, 0x1ae8u, 0x20a5u, 0x25d7u, 0x26f7u, 0x9f7bu, 0xa71du, 0xa999u,
  0xa78au, 0x258cu, 0x2753u, 0x193cu, 0x2416u, 0x2605u, 0xa080u, 0x1ba7u, 0x1337u, 0xa990u, 0xa825u, 0xa8efu, 0x0eafu, 0xa4b5u, 0xa905u, 0x27c9u,
  0xa8b2u, 0xa1c8u, 0x29ecu, 0x259bu, 0x9a55u, 0x1ed7u, 0x246eu, 0x197bu, 0x21e7u, 0xa83cu, 0xa476u, 0x29eau, 0xa13fu, 0xa37fu, 0x1df2u, 0x20ccu,
  0x2288u, 0xa8d0u, 0xa82du, 0x2706u, 0x1ec9u, 0xa6acu, 0x2486u, 0x2885u, 0x2ab0u, 0x1c2bu, 0x24fbu, 0xa5c4u, 0xa783u, 0x25e6u, 0xa9ceu, 0xa468u,
  0xa322u, 0xa321u, 0x9f61u, 0xa8feu, 0xa9bau, 0x24f8u, 0x1a6bu, 0x2812u, 0xa7aeu, 0x9febu, 0xa654u, 0x212fu, 0x9a2fu, 0xa70bu, 0x9dfdu, 0xa503u,
  0x919eu, 0xa099u, 0xa452u, 0xa5a1u, 0x1ee5u, 0x1b50u, 0xa52eu, 0x213au, 0xa867u, 0xa6dau, 0xa327u, 0x2234u, 0x2425u, 0xa95eu, 0xa6b1u, 0xa89du,
  0x27c8u, 0xa5beu, 0x1730u, 0x98e6u, 0xa64du, 0xa999u, 0x882au, 0x2829u, 0x1a34u, 0x24dcu, 0x1d7fu, 0x24dfu, 0xa87du, 0x85b6u, 0xa864u, 0xa580u,
  0xa013u, 0x2473u, 0x2813u, 0x17a6u, 0xa690u, 0x2837u, 0x25a1u, 0x1dcdu, 0x1d45u, 0x18b4u, 0x259eu, 0x2824u, 0xa10fu, 0xa62cu, 0xa994u, 0x27f1u,
  0x21f4u, 0x266bu, 0xa311u, 0x2900u, 0x9d6au, 0xa50eu, 0x2650u, 0xa168u, 0x9de6u, 0x9b6du, 0x28c1u, 0xa377u, 0xa2d1u, 0xa311u, 0x25c0u, 0x21d6u,
  0xa940u, 0xa84bu, 0xa465u, 0xa992u, 0x9d5cu, 0xa915u, 0x2100u, 0x9d2fu, 0x1b58u, 0x204bu, 0x1c92u, 0xa6bau, 0xa476u, 0xa7ccu, 0xa8d0u, 0x26e7u,
  0x9fc2u, 0x26d2u, 0xa87du, 0xa8a7u, 0x290au, 0xa70fu, 0x2821u, 0x25e7u, 0x9d5eu, 0x25aau, 0xa213u, 0x9fc5u, 0x931au, 0x255cu, 0xa897u, 0xa98du,
  0xa467u, 0xa4d0u, 0x250du, 0xa58bu, 0xaa0eu, 0x2169u, 0xa870u, 0xa9c5u, 0x152au, 0xa22du, 0xa476u, 0x2673u, 0xa708u, 0x93f1u, 0x274fu, 0xa4cdu,
  0xa465u, 0xa62au, 0xa839u, 0x237fu, 0x2309u, 0xa1b6u, 0x2039u, 0x284fu, 0x2887u, 0xa939u, 0xa85du, 0xa6c6u, 0xa5e3u, 0x25d2u, 0xa80fu, 0x19a5u,
  0x8c65u, 0xa5c1u, 0xa496u, 0x207cu, 0xa30cu, 0x2095u, 0x2810u, 0xa55fu, 0xa977u, 0xa4e2u, 0xa34bu, 0x1a0au, 0xa892u, 0x229fu, 0xa602u, 0x27c1u,
  0x20afu, 0xa558u, 0x2605u, 0x9212u, 0x9acdu, 0x9ef8u, 0x20dcu, 0x2746u, 0x99c8u, 0x1c50u, 0x23ceu, 0xa731u, 0xa764u, 0xa94au, 0x27bau, 0x2424u,
  0xa889u, 0xa8a5u, 0xa746u, 0x1edbu, 0x289bu, 0xa6cbu, 0xa4d7u, 0x2464u, 0x9bc9u, 0xa5b6u, 0x27c5u, 0x25d8u, 0xa82fu, 0x21ccu, 0x2188u, 0x9ebeu,
  0x27efu, 0x27c3u, 0xa9ceu, 0x2732u, 0x23cfu, 0x250fu, 0xa714u, 0x2493u, 0x232cu, 0x2624u, 0x0dc6u, 0xa854u, 0xa741u, 0x27c9u, 0x23e5u, 0xa202u,
  0x19a2u, 0x27f7u, 0xa22au, 0x21f1u, 0x20d0u, 0xa9a1u, 0x270au, 0x28d4u, 0x2443u, 0x2687u, 0xa930u, 0x9d2cu, 0xa2d7u, 0x2362u, 0x245du, 0xa905u,
  0x2764u, 0x20aau, 0xa77cu, 0xa755u, 0x283eu, 0xa0a8u, 0x20ddu, 0x2595u, 0xa61fu, 0xa082u, 0xa8fdu, 0xa36du, 0x249fu, 0xa03eu, 0xa828u, 0xa8ddu,
  0x1f46u, 0x27d7u, 0x1fe8u, 0x2196u, 0xa6fbu, 0xa624u, 0x250du, 0x9ce9u, 0xa780u, 0x9f71u, 0x2576u, 0xa71cu, 0x20a6u, 0xa9bau, 0xa8e9u, 0xa306u,
  0xa709u, 0xa443u, 0xa595u, 0x2595u, 0xa8e8u, 0x28cau, 0x1f22u, 0xa4d9u, 0xa929u, 0x2730u, 0x9cc0u, 0xa82du, 0xa8a3u, 0xa48fu, 0xa288u, 0x239bu,
  0xa170u, 0xa432u, 0x2028u, 0xa83au, 0x12fcu, 0x21f3u, 0xa75cu, 0x9fb2u, 0x286du, 0x98d7u, 0xa51du, 0xa80au, 0x9c1fu, 0x22deu, 0x281du, 0xa5a9u,
  0xa1abu, 0x2947u, 0x28bdu, 0x927cu, 0x2248u, 0x2836u, 0x1bf0u, 0x992cu, 0xa15fu, 0xa17bu, 0xa40cu, 0xa626u, 0xa8d8u, 0xa45bu, 0x1d91u, 0xa84du,
  0x25d8u, 0xa8b7u, 0x9fc6u, 0x2527u, 0x9ce4u, 0xa6b3u, 0x25eau, 0xa4b2u, 0xa7d1u, 0xa858u, 0x9b87u, 0xa594u, 0xa491u, 0xa889u, 0xa787u, 0xa3cdu,
  0x2288u, 0xa8b8u, 0xa8f6u, 0xa47cu, 0x9b34u, 0xa687u, 0x1cb2u, 0xa73eu, 0x9edcu, 0x2833u, 0x9b3du, 0xa557u, 0xa466u, 0x9fd3u, 0x279bu, 0xa603u,
  0xa8c0u, 0xa448u, 0x28d9u, 0x246du, 0x9dcau, 0x23a3u, 0xa6f7u, 0xa437u, 0x24e5u, 0x240cu, 0xa3c7u, 0x274bu, 0x28a5u, 0x23aau, 0x9acdu, 0x1bb5u,
  0x2130u, 0xa802u, 0x28d6u, 0x27b4u, 0xa8e0u, 0x1d9fu, 0xa4bcu, 0x261du, 0xa7e6u, 0xa634u, 0x224bu, 0x1eeeu, 0x26e3u, 0x289au, 0x2502u, 0x2257u,
  0x20b4u, 0x2716u, 0x2586u, 0x227cu, 0x1822u, 0x28beu, 0xa4c0u, 0x261cu, 0x2747u, 0xa83bu, 0x25bdu, 0x2744u, 0x9d74u, 0x8c5eu, 0x24e3u, 0x2434u,
  0x28c5u, 0x9bf6u, 0x9cb9u, 0xa8b9u, 0x24a8u, 0xa8e6u, 0x25feu, 0x253eu, 0x2374u, 0xa615u, 0x1f34u, 0x250du, 0x1f62u, 0xa7d7u, 0x28bfu, 0xa840u,
  0x10d3u, 0x2245u, 0x1fbeu, 0x27d7u, 0xa2acu, 0xa33fu, 0x2442u, 0xa90eu, 0x2818u, 0x1eafu, 0xa901u, 0x27b9u, 0xa82bu, 0xa314u, 0xa70fu, 0x222eu,
  0x24e5u, 0xa5d1u, 0x28c8u, 0x2525u, 0x1be9u, 0xa326u, 0xa86fu, 0x9a73u, 0x9875u, 0x27f6u, 0x28b9u, 0xa93cu, 0x2305u, 0xa0c6u, 0xa9bau, 0xa66au,
  0xa720u, 0xa8a6u, 0x25e5u, 0xa30bu, 0x241fu, 0x2446u, 0xa867u, 0xa48fu, 0xa975u, 0xaa14u, 0xa0cau, 0x26d0u, 0x2629u, 0x9109u, 0xa614u, 0xa939u,
  0xa647u, 0xa802u, 0xa7b6u, 0x257eu, 0x26efu, 0xa6c4u, 0x9699u, 0x251bu, 0x2661u, 0xa7bau, 0xa8f2u, 0xac05u, 0x9c8du, 0x2263u, 0x1d85u, 0x21d0u,
  0x247bu, 0x9e4eu, 0x25a1u, 0xa4dau, 0xa7fcu, 0xa418u, 0x1aebu, 0x9d55u, 0xa95au, 0xa81eu, 0xa853u, 0x258cu, 0xa037u, 0x2be5u, 0x23fdu, 0x2126u,
  0x9fd7u, 0x24cau, 0x1e20u, 0xa6f3u, 0x26ffu, 0xa964u, 0x266cu, 0xa3a7u, 0x2899u, 0x21b2u, 0x28b3u, 0x28f1u, 0x27e1u, 0x23f6u, 0xa181u, 0xa902u,
  0xa7d5u, 0xa4e2u, 0xa9bdu, 0xa232u, 0x20e6u, 0xa024u, 0x2391u, 0x28beu, 0xa448u, 0x267fu, 0xa0abu, 0xa639u, 0xa7ffu, 0xa974u, 0x9e98u, 0x99aau,
  0x98d7u, 0xa769u, 0x209du, 0x233bu, 0xa712u, 0xa592u, 0x99c2u, 0x2370u, 0x9b77u, 0x2787u, 0xa8cau, 0xa664u, 0x97abu, 0xa76du, 0xa9a2u, 0x9eceu,
  0xa83bu, 0xa8b8u, 0xa6a8u, 0xa965u, 0xa052u, 0xa7f9u, 0xa3b5u, 0x2345u, 0xa29du, 0xa4dcu, 0xa063u, 0xa118u, 0x2618u, 0xa8b9u, 0x9fa6u, 0xa7abu,
  0x236cu, 0xa8a0u, 0xa559u, 0x25dau, 0x275fu, 0x9ccfu, 0xa696u, 0xa873u, 0x216cu, 0x91f6u, 0x2030u, 0xa8cdu, 0x18dbu, 0x266fu, 0xa950u, 0xa7ddu,
  0x9e04u, 0x9c6fu, 0x1caau, 0x2397u, 0xa722u, 0x27e2u, 0x9f46u, 0x27ffu, 0x1c08u, 0xa569u, 0x2724u, 0x2874u, 0x183bu, 0xa48fu, 0xa485u, 0xa4cbu,
  0xa60cu, 0x27c8u, 0x25dau, 0x9d4du, 0x2289u, 0xa7acu, 0xa40bu, 0x21dau, 0xa938u, 0x24a1u, 0x2638u, 0xa14fu, 0x925bu, 0xa8b7u, 0x202fu, 0xa90au,
  0x9a32u, 0x9f84u, 0xa7d3u, 0xa41du, 0x19c0u, 0x2758u, 0xa320u, 0xa655u, 0xa727u, 0x1f6au, 0xa42au, 0x1589u, 0x2978u, 0xa909u, 0xa4fbu, 0x27dcu,
  0x18a2u, 0x219bu, 0x9c97u, 0x9d96u, 0xa665u, 0x2415u, 0xa7a4u, 0x1f10u, 0x267fu, 0x212bu, 0xa35eu, 0xa11fu, 0xa76fu, 0xa519u, 0x281du, 0xa785u,
  0xa886u, 0x20a1u, 0xa36du, 0x2114u, 0x2848u, 0x0d9eu, 0x2644u, 0x1ca5u, 0x202du, 0x8c7fu, 0x2174u, 0x276du, 0x263bu, 0x2733u, 0xa57cu, 0x266du,
  0xa92eu, 0xa90du, 0xa925u, 0x2908u, 0x2508u, 0xa6dau, 0x1a20u, 0xa84du, 0x264cu, 0x291du, 0x2890u, 0xa8a0u, 0x290du, 0x1f50u, 0x223bu, 0xa08au,
  0x25adu, 0xa2d3u, 0xa33du, 0x9fdfu, 0x184du, 0x82f2u, 0xa8afu, 0xa7e4u, 0xa428u, 0xa949u, 0x251cu, 0xa4beu, 0x2227u, 0x270eu, 0xa1e1u, 0xa17eu,
  0x284fu, 0x9db9u, 0xa12fu, 0xa656u, 0x2756u, 0x28fbu, 0x2444u, 0xa67bu, 0x2839u, 0x213fu, 0x2832u, 0x9802u, 0xa8abu, 0x1822u, 0x8a37u, 0xa59bu,
  0xa6e4u, 0x2502u, 0x97d4u, 0x9fd5u, 0xa2aau, 0x2b3eu, 0xac52u, 0xa58du, 0xad2cu, 0x25dfu, 0xa486u, 0xa4aau, 0xa7a4u, 0xa155u, 0x1228u, 0x2ad4u,
  0xa51bu, 0x9a27u, 0x25c0u, 0x22eeu, 0x9f0du, 0xa158u, 0xa254u, 0xa50fu, 0xa24du, 0xa457u, 0x2985u, 0x249eu, 0xa5abu, 0xa444u, 0x20eeu, 0xa09bu,
  0xa842u, 0x1c5bu, 0x231au, 0xa8e9u, 0x24e3u, 0x2600u, 0x9782u, 0x28ebu, 0x94f7u, 0xa6c8u, 0x25a6u, 0x2829u, 0xa1a8u, 0x1cf1u, 0x2671u, 0xa58cu,
  0x1a90u, 0xa5acu, 0x2004u, 0xa8aau, 0x2850u, 0x24f1u, 0xa079u, 0x24c9u, 0x2155u, 0x9535u, 0x2598u, 0x2762u, 0x2239u, 0x9e3du, 0x2341u, 0x9abbu,
  0x1440u, 0x1839u, 0x25cbu, 0x18a8u, 0xa496u, 0x1144u, 0x25d4u, 0x28d3u, 0x24eau, 0x25c3u, 0xa591u, 0x24c1u, 0xa968u, 0x1f50u, 0xa45du, 0x288du,
  0xa866u, 0x2698u, 0xa82du, 0x2165u, 0xa804u, 0x9f61u, 0xa4f1u, 0xa141u, 0x2286u, 0x24d5u, 0xa3beu, 0x24f3u, 0xa82bu, 0x265fu, 0xa95du, 0xa1fcu,
  0x278du, 0x220eu, 0x9cb7u, 0x1f5au, 0x9a05u, 0x2219u, 0xa867u, 0xa7e6u, 0xa1f2u, 0x2608u, 0x27a2u, 0xa507u, 0xa23bu, 0x980bu, 0x1d62u, 0xa92cu,
  0xa9d8u, 0xa20cu, 0x251cu, 0xa834u, 0x1fbau, 0x241au, 0x247du, 0x124au, 0x2894u, 0x2826u, 0xa69cu, 0x9f96u, 0xa405u, 0xa2abu, 0x2545u, 0x9bc1u,
  0xa8d1u, 0x1cd9u, 0x24ddu, 0x2776u, 0x28c2u, 0x2551u, 0x29c1u, 0xa88eu, 0xa5bdu, 0x23b9u, 0xa7dau, 0x2769u, 0xa40cu, 0xa986u, 0x28abu, 0xa60bu,
  0xa11bu, 0x173bu, 0xa61bu, 0xa052u, 0x27abu, 0xa63eu, 0x2851u, 0x208eu, 0x266au, 0x27d3u, 0x989du, 0x2547u, 0x283au, 0x2532u, 0xa653u, 0x91e9u,
  0x2258u, 0x276au, 0x2636u, 0xa2c3u, 0xa1f7u, 0xa7afu, 0xa61du, 0xa59bu, 0x9534u, 0xa4ffu, 0xa3cau, 0xa884u, 0x26cdu, 0x200du, 0x1897u, 0x2704u,
  0x23fau, 0x261bu, 0x28aeu, 0x2651u, 0xa950u, 0x8eb4u, 0xa5ccu, 0x9e2fu, 0x9d59u, 0x2658u, 0xa1f3u, 0x1a86u, 0xa926u, 0x21dbu, 0xa2edu, 0xa876u,
  0x9900u, 0x9e60u, 0x21c6u, 0xa68au, 0xa594u, 0xa4adu, 0xa80cu, 0xa610u, 0x2242u, 0x2569u, 0x1ec6u, 0xa46du, 0xa215u, 0x9accu, 0xa73fu, 0x1821u,
  0x8a3cu, 0x2478u, 0xa8bfu, 0xa9adu, 0x22bau, 0x25f0u, 0xa725u, 0xa89eu, 0xa033u, 0x24cfu, 0x22d1u, 0xa80au, 0xa6beu, 0x1f10u, 0xa528u, 0x27b9u,
  0xa9beu, 0x22d6u, 0x1e4au, 0x2532u, 0x9aecu, 0x9a93u, 0x1f88u, 0xa31cu, 0x2810u, 0xa3d6u, 0xa82fu, 0xa91eu, 0x23ecu, 0x2416u, 0xa6d5u, 0x9cd8u,
  0xa8b7u, 0x2690u, 0x2641u, 0xa89cu, 0xa69au, 0x9ed8u, 0x9297u, 0xa5c7u, 0x94aau, 0x28a1u, 0xa2d1u, 0x28f5u, 0xa2f0u, 0xa8c4u, 0x2888u, 0x1b68u,
  0x2275u, 0x1b69u, 0x9ac0u, 0xa37eu, 0xa44fu, 0xa5fbu, 0xa812u, 0x8c3eu, 0x9f82u, 0x289eu, 0x20c7u, 0xa826u, 0xa1d1u, 0xa897u, 0x9badu, 0xa8ccu,
  0x23f9u, 0x2886u, 0xa7e7u, 0xa8acu, 0x9f3fu, 0x248au, 0xa500u, 0xa648u, 0xa226u, 0xa660u, 0x944fu, 0xa2d8u, 0x9dc9u, 0x27e6u, 0x24f6u, 0xa870u,
  0x9cacu, 0x2573u, 0xa86cu, 0xa7f6u, 0xa2b3u, 0xa72eu, 0xa4bfu, 0xa78du, 0xa689u, 0x9c64u, 0x28b9u, 0x288cu, 0x2341u, 0x9f1du, 0x28c0u, 0xa54bu,
  0x1c1fu, 0xa54du, 0x202cu, 0x268eu, 0xa8a6u, 0xa34au, 0x2802u, 0xa34cu, 0x9ddfu, 0x9c34u, 0x27dfu, 0x2620u, 0xa751u, 0x1c15u, 0x1e2eu, 0x2880u,
  0xa890u, 0x1d52u, 0xa829u, 0xa5f3u, 0x2484u, 0x9cdbu, 0x212bu, 0x2857u, 0x24fcu, 0xa046u, 0x2701u, 0x24c8u, 0x21acu, 0xa713u, 0x18edu, 0x1ca3u,
  0xa5d9u, 0x20f7u, 0x27deu, 0x9cf2u, 0x26bbu, 0x2507u, 0xa8f1u, 0xa849u, 0x9c60u, 0x261au, 0xa77fu, 0xa7e5u, 0x1a6du, 0x9e39u, 0xa648u, 0x152bu,
  0xa5d3u, 0x220du, 0xa818u, 0x2615u, 0x25f7u, 0x2117u, 0xa88au, 0xa5a0u, 0x9289u, 0xa5deu, 0xa762u, 0x261du, 0x1fedu, 0x277du, 0x2820u, 0xa831u,
  0x2782u, 0xa3deu, 0xa459u, 0xa640u, 0xa47fu, 0xa893u, 0xa12au, 0x26afu, 0x1c12u, 0xa611u, 0xa536u, 0x2453u, 0x1cc6u, 0xa4e1u, 0xa297u, 0x28a8u,
  0x258au, 0x272au, 0xa57fu, 0xa213u, 0x2811u, 0x2644u, 0x292fu, 0xa4fau, 0xa6edu, 0xa26eu, 0xa202u, 0x1b59u, 0xa947u, 0xa2fau, 0xa87au, 0x2220u,
  0x2583u, 0x9c62u, 0xa9fbu, 0xa6b2u, 0x2821u, 0xa6cbu, 0x2501u, 0x254fu, 0x2528u, 0x95cfu, 0x9835u, 0xaaa8u, 0xa4efu, 0xa667u, 0x24f9u, 0x9becu,
  0x1becu, 0x2370u, 0xa66eu, 0x1b37u, 0xa611u, 0xa923u, 0x9fb7u, 0x26beu, 0xa18du, 0x24a8u, 0xa8c9u, 0xa938u, 0x27eeu, 0xa674u, 0xa3d3u, 0xa174u,
  0xa71eu, 0x24eau, 0x1890u, 0xa869u, 0x23b4u, 0xa17cu, 0xa3bfu, 0x23b9u, 0xa694u, 0x233fu, 0x1ddcu, 0xa661u, 0x9cceu, 0xa5c9u, 0xa85au, 0xa13du,
  0x2832u, 0x9d78u, 0x1758u, 0x1f48u, 0x2861u, 0x280au, 0xaa91u, 0xa94au, 0x9dedu, 0x24f2u, 0x267du, 0x9dacu, 0x2316u, 0xa85eu, 0xa4d0u, 0xa6e2u,
  0xa8ebu, 0x282du, 0xa81du, 0xa329u, 0x2337u, 0xa815u, 0xa861u, 0x2787u, 0x246cu, 0x251du, 0x226eu, 0x1eebu, 0xa560u, 0xa4fau, 0xa4e4u, 0xa4efu,
  0x943cu, 0xa4c6u, 0xa20cu, 0x285cu, 0x27f1u, 0x22a6u, 0x895cu, 0x2851u, 0xa167u, 0x9d7bu, 0x9c52u, 0xa4c6u, 0xa820u, 0x24c4u, 0x2905u, 0xa6ffu,
  0x2550u, 0xa05fu, 0xa1e1u, 0x20b6u, 0xa75eu, 0x22f4u, 0x2837u, 0x26cfu, 0xa326u, 0xa21fu, 0xa69cu, 0x27f7u, 0xa93au, 0x24e4u, 0x0b61u, 0x22e4u,
  0x25f2u, 0xa327u, 0x26c0u, 0x2590u, 0x1fb5u, 0x9ca1u, 0x2734u, 0x2276u, 0x21edu, 0x9e2fu, 0x270au, 0xa4a5u, 0xa754u, 0x2198u, 0xa124u, 0x216eu,
  0xa303u, 0x9c1du, 0x24f4u, 0x2898u, 0xa26eu, 0x1902u, 0xa837u, 0x2470u, 0x9f5du, 0x957fu, 0xa84fu, 0x249cu, 0x246eu, 0x2634u, 0xa843u, 0xa60au,
  0xa4e7u, 0x289bu, 0x9c6au, 0x2769u, 0x258cu, 0x27e5u, 0x28ddu, 0x9e6eu, 0xa816u, 0xa412u, 0x1f79u, 0xa8a8u, 0xa1e8u, 0x24fdu, 0xa062u, 0x2088u,
  0x91e9u, 0xa75cu, 0x254eu, 0xa211u, 0xa43eu, 0x25dcu, 0x23cfu, 0xa81cu, 0xa733u, 0xa7b9u, 0xa4d7u, 0x289du, 0x202cu, 0x290eu, 0xa6e4u, 0xa838u,
  0xa8a4u, 0xa845u, 0xa752u, 0x1f5au, 0x2477u, 0xa06au, 0xa260u, 0xa4d2u, 0x99bdu, 0xa451u, 0x9cbbu, 0xa4e9u, 0xa67bu, 0x2706u, 0x24a0u, 0x15bau,
  0xa6e2u, 0xa8f6u, 0x98d6u, 0xa9d4u, 0x290fu, 0x23c3u, 0x256bu, 0xa477u, 0xa635u, 0xa429u, 0xa904u, 0xa807u, 0xa6a3u, 0xa300u, 0x242au, 0xa4f7u,
  0x25eeu, 0x1e5bu, 0xa808u, 0xa86du, 0xa50au, 0x9c9cu, 0x1f39u, 0xa834u, 0xa8cau, 0x2749u, 0xa14cu, 0x23afu, 0x2588u, 0x2675u, 0x99feu, 0xa8bcu,
  0xa131u, 0x2858u, 0x22f1u, 0xa515u, 0x19e3u, 0xa55fu, 0x1d0bu, 0x2841u, 0xa179u, 0xa8f1u, 0xa458u, 0xa6e2u, 0x1f57u, 0x2919u, 0xa95du, 0xa25eu,
  0x25b4u, 0x2913u, 0xa816u, 0xa6a2u, 0x22f8u, 0xa82fu, 0x2456u, 0x99bcu, 0xa6f1u, 0x2380u, 0x28d5u, 0xa438u, 0x059eu, 0x2437u, 0xa959u, 0x9b80u,
  0x9123u, 0x27f8u, 0x02a4u, 0x1e9du, 0xa009u, 0xa41bu, 0x2343u, 0xa114u, 0x9fd4u, 0xab05u, 0xa450u, 0xa4bdu, 0xa9f1u, 0x2070u, 0xa666u, 0x28ecu,
  0x9c2du, 0x20fau, 0xa428u, 0xa3a8u, 0x9345u, 0x272eu, 0x1439u, 0x21b8u, 0xa896u, 0xaa2bu, 0xa010u, 0x2558u, 0xa9dcu, 0x28edu, 0xa6a6u, 0xa6adu,
  0x225au, 0x179eu, 0xa318u, 0xa3a6u, 0xa998u, 0xa000u, 0xa46bu, 0x24a4u, 0x2480u, 0x2692u, 0x27bdu, 0xa8fbu, 0xa5a7u, 0xa3a7u, 0xa9ceu, 0xa28au,
  0xa632u, 0x2679u, 0x2709u, 0xa168u, 0x245cu, 0x84acu, 0x9ac9u, 0x18a4u, 0x1ceau, 0x9d4du, 0xa4d3u, 0xa58du, 0x1d26u, 0x0c95u, 0xa767u, 0x9c83u,
  0x218bu, 0xa861u, 0x2784u, 0xa92bu, 0xa423u, 0x27d2u, 0x155du, 0xa074u, 0xa809u, 0xa1ecu, 0xa5bdu, 0xa99fu, 0x298au, 0x25d1u, 0xa4a0u, 0x24e7u,
  0xa1f2u, 0xa8c7u, 0x98f7u, 0xa77fu, 0xa674u, 0xa85du, 0x9c11u, 0xa33eu, 0x9c6fu, 0xa980u, 0x9e07u, 0xa54fu, 0x24f6u, 0xa8f3u, 0x1e17u, 0x26f2u,
  0xa86fu, 0x2078u, 0xa353u, 0x2809u, 0xa2f4u, 0x2873u, 0x27ceu, 0x9b29u, 0xa5ddu, 0x2713u, 0xa757u, 0xaa39u, 0x26cdu, 0xa02cu, 0xa714u, 0x285eu,
  0xa4e9u, 0xa4a2u, 0xa307u, 0xa5f7u, 0x9910u, 0x24b9u, 0x1e69u, 0x227du, 0xa7acu, 0x97a1u, 0xa79eu, 0x9c5au, 0x20e9u, 0x2181u, 0x2753u, 0xa37eu,
  0x28e7u, 0xa533u, 0x0c97u, 0x9b6eu, 0xa4a6u, 0x272fu, 0x2849u, 0x28f6u, 0x21e9u, 0x9c18u, 0xa8d0u, 0xa74au, 0x2621u, 0x8ca1u, 0x26fdu, 0xa84bu,
  0x2916u, 0xa96bu, 0x1695u, 0xa4adu, 0x947eu, 0x27e4u, 0xa4c2u, 0xa702u, 0x97e7u, 0x279cu, 0xa72eu, 0xa9f3u, 0xa8afu, 0x1fc4u, 0xa6bbu, 0x1f19u,
  0xa493u, 0xa82bu, 0xa6fbu, 0x24cdu, 0x280fu, 0x284du, 0xa7d8u, 0xa24cu, 0xa6b7u, 0xa39cu, 0xa85du, 0x2814u, 0x9fc7u, 0xa4cau, 0xa490u, 0xa94fu,
  0xa642u, 0x23bau, 0x25c9u, 0x269fu, 0x25d0u, 0x267bu, 0xa620u, 0xa416u, 0xa6f4u, 0x253fu, 0xa1f3u, 0x26beu, 0xa869u, 0xa754u, 0x1c32u, 0x2407u,
  0x25ecu, 0x1dafu, 0xa35bu, 0xa78fu, 0x1d77u, 0x2804u, 0xa790u, 0x2498u, 0xa851u, 0xa31cu, 0xa782u, 0x25fcu, 0x272bu, 0x25ecu, 0xa579u, 0x2687u,
  0x1f9au, 0x2651u, 0xa8cdu, 0xa83bu, 0xab12u, 0x99b8u, 0x2760u, 0xa8d9u, 0xa2e9u, 0x25d8u, 0x254eu, 0xa8eau, 0xa57au, 0x98f4u, 0x25a9u, 0x250cu,
  0xa7c4u, 0x2255u, 0x2032u, 0xa4beu, 0xa589u, 0xa372u, 0xa6d9u, 0x9d1eu, 0x8292u, 0xa8f0u, 0xa742u, 0xaae3u, 0x28c0u, 0xa0f4u, 0x2633u, 0x2021u,
  0xa75cu, 0x25e3u, 0xa876u, 0xa80bu, 0x2658u, 0x296eu, 0x2469u, 0xa9acu, 0xa46au, 0xa8bfu, 0x28d7u, 0xa6e2u, 0xa228u, 0x9c2fu, 0xa727u, 0x2001u,
  0xa5a7u, 0xa831u, 0xa82du, 0xa554u, 0xa04fu, 0x2716u, 0x2169u, 0x9ea0u, 0xa7e4u, 0x21f5u, 0x1fa2u, 0xa992u, 0x26eau, 0x1621u, 0x27b8u, 0x1cc6u,
  0x267cu, 0xa6b4u, 0xa4a7u, 0x28deu, 0xa07fu, 0x9d2fu, 0xa483u, 0xa633u, 0xa4a6u, 0xa6dfu, 0x276du, 0xa5e8u, 0x279fu, 0x1d3du, 0x2697u, 0x26fdu,
  0xa45cu, 0x1853u, 0x28fbu, 0xa2ffu, 0x1a18u, 0xa8e7u, 0x25d6u, 0x274cu, 0x2896u, 0x1521u, 0x250bu, 0xa4a3u, 0xa304u, 0x1c96u, 0x2055u, 0xa7bfu,
  0x2695u, 0xa85au, 0xa96eu, 0x24fdu, 0x9cd9u, 0x95e2u, 0x2748u, 0xa867u, 0xa869u, 0xa08du, 0x1eefu, 0x23ebu, 0xa751u, 0xa659u, 0xa6e6u, 0xa56bu,
  0x252cu, 0xa436u, 0xa510u, 0x2786u, 0xa59du, 0xa0b4u, 0xa8deu, 0x8adcu, 0xa840u, 0x273bu, 0xa7a7u, 0x197cu, 0x1ba7u, 0x9a7cu, 0x21a8u, 0x2225u,
  0x16e3u, 0x25c9u, 0x1ae9u, 0x1f74u, 0x2847u, 0xa495u, 0xa2e2u, 0x2057u, 0xa265u, 0x14eau, 0x2896u, 0xa6a1u, 0x2620u, 0x2604u, 0x284eu, 0xa919u,
  0xa711u, 0x9ceau, 0x2861u, 0xa860u, 0xa7acu, 0x25b2u, 0x9e7eu, 0x94b9u, 0x21f1u, 0x9b59u, 0xa7dfu, 0x2127u, 0xa1bdu, 0x2852u, 0x9f32u, 0xa506u,
  0x252fu, 0xa87bu, 0xa943u, 0x9e05u, 0x28d5u, 0x09b5u, 0x2921u, 0x2838u, 0x2505u, 0xa504u, 0xa8f4u, 0x9731u, 0xa181u, 0xa505u, 0x26b4u, 0x27dcu,
  0xa5f8u, 0x16d5u, 0x9eefu, 0x26cdu, 0x20e5u, 0x1f67u, 0xa461u, 0x2819u, 0x9f40u, 0x2933u, 0x9fb8u, 0x1a9du, 0x24e3u, 0xa007u, 0xa822u, 0xa953u,
  0x2769u, 0x279au, 0x136cu, 0xa8d3u, 0x1917u, 0xa4e4u, 0xa3e4u, 0x2479u, 0xa4b3u, 0xa820u, 0xa8f3u, 0xa909u, 0xa1c6u, 0xa8beu, 0x25fdu, 0x24f3u,
  0x25aeu, 0xa475u, 0xa1b6u, 0xa30fu, 0xa840u, 0xa0d1u, 0xa4ecu, 0xa9b5u, 0xa466u, 0xa915u, 0x161du, 0x1cacu, 0xa50au, 0x24efu, 0xa405u, 0xa462u,
  0xa8afu, 0x2530u, 0xa90fu, 0x238du, 0xa95bu, 0xa7ecu, 0x2761u, 0xa590u, 0xa3f6u, 0x1f5au, 0x24a0u, 0x96efu, 0x9ea8u, 0x2444u, 0xa8d3u, 0x28d0u,
  0x83d3u, 0x1518u, 0xa532u, 0xa38au, 0xa224u, 0x9133u, 0xa49au, 0xa234u, 0x2484u, 0xa433u, 0x26a3u, 0x28a3u, 0xa901u, 0xa6a6u, 0xa12fu, 0xa823u,
  0x9864u, 0xa2d8u, 0x210au, 0x2817u, 0x297bu, 0xa818u, 0x286au, 0xa72au, 0x939au, 0x1d93u, 0xa6f6u, 0x1913u, 0x2736u, 0x1d59u, 0x25c3u, 0xa4f5u,
  0x1ed8u, 0x2669u, 0x9f8au, 0xa331u, 0xa758u, 0x26aeu, 0xa87bu, 0x271bu, 0xa916u, 0x2045u, 0xa2c1u, 0x2549u, 0x1d06u, 0xa361u, 0xa962u, 0xa4cau,
  0x07a7u, 0xa92au, 0x1cb0u, 0x2628u, 0x27beu, 0x271bu, 0x2618u, 0x2121u, 0x24b7u, 0xa61bu, 0x9b17u, 0x2876u, 0x24ebu, 0x27ddu, 0x961du, 0xa15bu,
  0x9ec5u, 0xa87du, 0x2053u, 0xa51cu, 0x240cu, 0xa2feu, 0xa37bu, 0x28ceu, 0xa97cu, 0x28beu, 0x1d16u, 0xa67bu, 0xa80bu, 0x1a73u, 0xa720u, 0xa6d6u,
  0xa97au, 0x8b47u, 0x276eu, 0x275au, 0x9a0du, 0x281bu, 0xa831u, 0xa1fcu, 0xa890u, 0xa1e6u, 0x25deu, 0x27beu, 0x29edu, 0x9ca7u, 0xa5a2u, 0x24c4u,
  0xa425u, 0x268eu, 0xa6f3u, 0x2374u, 0x2490u, 0xa8e3u, 0xa889u, 0xa8e5u, 0xa80cu, 0x241au, 0x087cu, 0x9c5fu, 0xa2bau, 0x9e57u, 0xa46fu, 0x2543u,
  0x22c8u, 0xa3bcu, 0xa461u, 0xa192u, 0x28b4u, 0xa33fu, 0xa7f1u, 0x9f6au, 0xa4e9u, 0x9874u, 0xa05fu, 0xa7d3u, 0x270eu, 0x9bc8u, 0xa910u, 0x2385u,
  0xa4a6u, 0x1cd2u, 0x1d22u, 0x2973u, 0xa488u, 0x230fu, 0xa510u, 0xa6e3u, 0xa896u, 0xa77au, 0xa929u, 0xa928u, 0x1fb1u, 0xa15cu, 0xa5dbu, 0xa6c0u,
  0x245fu, 0x2884u, 0x254cu, 0x1c37u, 0xa842u, 0xa90au, 0x28d1u, 0x9e61u, 0xa556u, 0x22a8u, 0xa383u, 0x1cb9u, 0xa54eu, 0xa93bu, 0x22f1u, 0x2361u,
  0xa640u, 0xa4f9u, 0x1729u, 0xa126u, 0xa518u, 0x275au, 0xa15fu, 0xa93du, 0x25ccu, 0x2412u, 0x27e4u, 0x2909u, 0xa672u, 0x2596u, 0xa5a6u, 0xa817u,
  0xa404u, 0x0f2cu, 0x2201u, 0xa901u, 0xa107u, 0x25d4u, 0x9c5du, 0x21bdu, 0x23f8u, 0x1d7au, 0x25f5u, 0xa664u, 0x2498u, 0xa96cu, 0x275eu, 0x2830u,
  0x984bu, 0xa307u, 0xa668u, 0xa7d5u, 0x2831u, 0xa70fu, 0xa546u, 0xa619u, 0x2787u, 0x9c38u, 0xa4deu, 0x9c0fu, 0xa75fu, 0x2248u, 0xa85eu, 0xa9aau,
  0xa96au, 0xa05bu, 0xa766u, 0xa804u, 0x1d5fu, 0x9cc3u, 0x2377u, 0x1f4au, 0x2776u, 0xa78bu, 0x289cu, 0x2791u, 0x2492u, 0x212eu, 0x253du, 0x27eeu,
  0x1fe2u, 0x1e91u, 0xa80fu, 0x2742u, 0x264au, 0x289au, 0x245du, 0x28d1u, 0x286cu, 0x22b7u, 0x255du, 0x99d1u, 0x28dcu, 0xa3acu, 0xa263u, 0x28c5u,
  0x2279u, 0x20cdu, 0x2692u, 0x0f34u, 0x9d1bu, 0xa501u, 0xa7a7u, 0x9e0cu, 0xa912u, 0xa73du, 0x21a5u, 0x283fu, 0xa775u, 0x2082u, 0xa63fu, 0x2751u,
  0xa2fbu, 0x20dcu, 0xa3ebu, 0x288eu, 0x27d5u, 0xa87du, 0xa1b3u, 0x99d1u, 0x26b3u, 0xa158u, 0x2944u, 0x274fu, 0x258au, 0x21f8u, 0x268cu, 0x1cc8u,
  0x163du, 0x1aebu, 0x2699u, 0x2077u, 0x2a35u, 0xa040u, 0x2983u, 0xa696u, 0x9c96u, 0xa3dau, 0x2864u, 0x28d2u, 0x169eu, 0xaaf6u, 0x2334u, 0x1584u,
  0x9d23u, 0xa0f5u, 0x1f59u, 0xa22du, 0x1febu, 0xa0ebu, 0x2068u, 0x17e2u, 0x2118u, 0x9eaeu, 0xa20cu, 0x213fu, 0xa4a4u, 0x16aeu, 0x1d10u, 0x28a8u,
  0x2291u, 0xa991u, 0x232au, 0xa852u, 0xa85fu, 0xa1fdu, 0x1c3fu, 0xa8a1u, 0x290fu, 0xa2f0u, 0x1b51u, 0x287au, 0x2790u, 0x9a66u, 0xa94cu, 0xa17au,
  0x2693u, 0xa547u, 0x9ba9u, 0x2900u, 0xa432u, 0x2272u, 0xa6abu, 0xa916u, 0x98f5u, 0xa5b5u, 0x9cb1u, 0xa9a5u, 0x252cu, 0x1ac4u, 0xa89bu, 0x1aa1u,
  0xa986u, 0x1dceu, 0x2873u, 0x2674u, 0xa8c8u, 0xa501u, 0xa4c8u, 0x2513u, 0x28c0u, 0xa9c2u, 0xa14du, 0xa8fdu, 0x92e1u, 0x1ea3u, 0x272bu, 0xa0cbu,
  0xa73bu, 0x278au, 0x9a39u, 0xa4aau, 0xa4d4u, 0x2351u, 0xa874u, 0xa69bu, 0x173cu, 0xa7f6u, 0x289du, 0x216du, 0xa6d5u, 0x9ef6u, 0xa7edu, 0xa174u,
  0x284du, 0x2664u, 0xa5f1u, 0x1eb9u, 0x28bbu, 0x2625u, 0xaa22u, 0xa2c7u, 0xa845u, 0xa4bfu, 0xa46eu, 0x1d19u, 0xa85fu, 0xa75du, 0xa51eu, 0x26fau,
  0x289fu, 0xa11au, 0x225bu, 0x1dabu, 0xa486u, 0xa4c1u, 0xa89du, 0x27b5u, 0x2845u, 0xa7c5u, 0x20a2u, 0xa94du, 0xa393u, 0x18cfu, 0x216fu, 0x259eu,
  0xa8fau, 0x2548u, 0x2750u, 0xa735u, 0xa731u, 0x264cu, 0x261du, 0xa7ecu, 0x9a0eu, 0x21dau, 0xa760u, 0x9d93u, 0xa229u, 0x24bfu, 0xa467u, 0x282bu,
  0xa854u, 0xa26fu, 0xa47fu, 0x2351u, 0xa4f9u, 0xa9a8u, 0x9f51u, 0x190bu, 0xa806u, 0xa4f1u, 0x2906u, 0xa310u, 0xa86fu, 0x24c1u, 0x2907u, 0xa5aau,
  0xa56bu, 0x24d3u, 0x25feu, 0xa853u, 0xa290u, 0x27fcu, 0xa168u, 0x1ae5u, 0x996bu, 0xa2a2u, 0xa84eu, 0x26d1u, 0x2488u, 0x1f38u, 0xa8c7u, 0xa106u,
  0xa430u, 0x2803u, 0x9a23u, 0xa7b2u, 0x260fu, 0x26e1u, 0x2578u, 0x20e3u, 0xa1d5u, 0x1fc5u, 0x2947u, 0x26fbu, 0x1cefu, 0x2656u, 0xa02fu, 0x209bu,
  0xa804u, 0x26cbu, 0x233cu, 0xa6f6u, 0xa485u, 0xa72bu, 0x1a14u, 0x2703u, 0xa74bu, 0x1c3cu, 0xa4a2u, 0xa422u, 0xa350u, 0x250au, 0xa8bfu, 0xa413u,
  0x2656u, 0xa6e5u, 0x2760u, 0xaa37u, 0x27f6u, 0xa905u, 0x28afu, 0x24a3u, 0xa8b8u, 0x1c4eu, 0x28a2u, 0x2463u, 0xa5c9u, 0x227cu, 0x1ed7u, 0xa946u,
  0x1a19u, 0xa969u, 0xa74bu, 0xa578u, 0x1a81u, 0xa8e7u, 0xa3fdu, 0x2171u, 0x98e0u, 0xa839u, 0xa864u, 0x24fdu, 0xa881u, 0xa8b4u, 0xa38fu, 0x1be7u,
  0x27c5u, 0xa300u, 0x9da1u, 0x285fu, 0x276fu, 0xa77au, 0xa93fu, 0xa692u, 0x1682u, 0x27b3u, 0x2894u, 0xa95bu, 0xa50cu, 0x24e6u, 0x913au, 0x25dau,
  0xa296u, 0xa097u, 0xa195u, 0x2698u, 0xa54fu, 0x2386u, 0xa593u, 0xa6b9u, 0xa729u, 0x9e7eu, 0x224fu, 0x1eadu, 0xa727u, 0xa95bu, 0xa867u, 0xa21bu,
  0xa6d7u, 0x1e33u, 0xa419u, 0x1d5du, 0x241cu, 0xa948u, 0x281bu, 0xa7eeu, 0xa829u, 0x9a82u, 0xa340u, 0x288fu, 0x1617u, 0xa17cu, 0xa7d7u, 0xa447u,
  0x273du, 0x243au, 0x26a5u, 0xaa28u, 0x246cu, 0x28d9u, 0x1ce2u, 0xa8cfu, 0x2167u, 0xa95du, 0xa0b5u, 0x2476u, 0x1c34u, 0x2498u, 0x219fu, 0x243eu,
  0xa504u, 0xa97cu, 0xa11cu, 0x2391u, 0x27e7u, 0xa5a3u, 0x9d79u, 0xa057u, 0x266du, 0x25d8u, 0x1f11u, 0x2641u, 0x291bu, 0xa243u, 0xa631u, 0xa8c2u,
  0xa7bbu, 0x2421u, 0xa5a7u, 0x2138u, 0xa790u, 0xa02cu, 0x2601u, 0xa2acu, 0x2505u, 0xa917u, 0x06e7u, 0xa9deu, 0xa5b0u, 0x9e45u, 0xa5f9u, 0x27eau,
  0x26f9u, 0x1e6eu, 0x9c20u, 0x21ddu, 0x2522u, 0x1c0eu, 0x27f3u, 0x20a4u, 0x2412u, 0x26bdu, 0xa022u, 0x27d5u, 0xa748u, 0xa230u, 0xa66eu, 0x25a8u,
  0x9fddu, 0x214fu, 0xa082u, 0xa713u, 0xa953u, 0xa468u, 0x27d8u, 0x9459u, 0x1f84u, 0x270fu, 0xa8f3u, 0x24efu, 0xa23fu, 0xa912u, 0x9b81u, 0xa98au,
  0x2757u, 0xa8c4u, 0x2822u, 0xa9d4u, 0xa4e8u, 0xa604u, 0x25a6u, 0x230cu, 0x1ef2u, 0x1e44u, 0x2418u, 0xab49u, 0x2559u, 0x2768u, 0x2000u, 0x274fu,
  0x25fdu, 0xa432u, 0x1d38u, 0xa03eu, 0xa89eu, 0x2844u, 0xa198u, 0x2032u, 0x2737u, 0xa83bu, 0xa42cu, 0xa89eu, 0xa4e9u, 0x8b48u, 0xa887u, 0x1c97u,
  0x255eu, 0xa95fu, 0xa632u, 0xa8dcu, 0xa762u, 0xa4f5u, 0xa4fbu, 0x21b2u, 0x2857u, 0xa7efu, 0x265eu, 0x1e47u, 0xa208u, 0xa839u, 0xa551u, 0x2245u,
  0xa7feu, 0x289cu, 0xa6b9u, 0xa89eu, 0x9cb8u, 0x273bu, 0x2838u, 0x289du, 0xa257u, 0xa4b0u, 0x9c9bu, 0x9c32u, 0x9f3cu, 0x1e44u, 0xa096u, 0xa2bau,
  0xa471u, 0x28e8u, 0x1dcbu, 0xa5e4u, 0xa83bu, 0xa84fu, 0x9e7bu, 0x22b5u, 0xa6a5u, 0x148au, 0x1d6du, 0xa4b4u, 0x9fdcu, 0xa856u, 0x2832u, 0x237du,
  0x25e5u, 0xa8f3u, 0xa42bu, 0x222cu, 0xa41du, 0x20e5u, 0x2303u, 0xa240u, 0x2824u, 0x26cfu, 0xa033u, 0x259au, 0x22ecu, 0xa6f8u, 0x241cu, 0x27e7u,
  0xa798u, 0x282bu, 0xa83au, 0x1fb4u, 0x1dd7u, 0x226au, 0x1b30u, 0xa52fu, 0x2842u, 0x24b6u, 0x15e8u, 0xa834u, 0x1c0du, 0xa7ceu, 0xa07bu, 0x2813u,
  0xa5bfu, 0xa8a8u, 0x2140u, 0x1aa0u, 0xa1c7u, 0xa4d6u, 0x2841u, 0x245eu, 0xa467u, 0x244bu, 0x25a8u, 0x255du, 0x269au, 0xa73au, 0x2445u, 0x18a1u,
  0xa296u, 0xa476u, 0xa4f1u, 0x1a29u, 0x2466u, 0xa63eu, 0xa3afu, 0x21abu, 0x1ec9u, 0xa783u, 0x25cbu, 0x9ca9u, 0x289cu, 0x2785u, 0x2259u, 0x2264u,
  0xa783u, 0x209au, 0xa2efu, 0xa3f9u, 0xa804u, 0xa3b5u, 0x25c2u, 0x249cu, 0x21dau, 0x2525u, 0x20c9u, 0xa36au, 0x9fefu, 0x27e3u, 0xa6d6u, 0x2755u,
  0x17f3u, 0xa5aeu, 0x27f9u, 0x24d9u, 0x23ccu, 0xa4eau, 0xa27du, 0x286cu, 0x28dau, 0x2636u, 0x9862u, 0xa013u, 0x9d65u, 0xa24eu, 0x2794u, 0x2891u,
  0x26f6u, 0x2850u, 0x2872u, 0x28d0u, 0x2763u, 0xa4a8u, 0x255eu, 0xa897u, 0x20b8u, 0x28fcu, 0xa8e0u, 0xa764u, 0xa722u, 0xa48bu, 0x9a26u, 0xa1c1u,
  0xa262u, 0x1f0bu, 0x9d32u, 0x2724u, 0x22ffu, 0x28d6u, 0x208au, 0x1e23u, 0x2491u, 0xa447u, 0x22e3u, 0x11f9u, 0xa47bu, 0xa82du, 0x2569u, 0x290eu,
  0x945cu, 0x2565u, 0x1204u, 0x28ccu, 0x1e8eu, 0x28c4u, 0xa17bu, 0x2004u, 0x163bu, 0xa807u, 0x2432u, 0x2626u, 0xa424u, 0xa77au, 0x2458u, 0x2429u,
  0x25d0u, 0xa6e0u, 0xa591u, 0xa238u, 0x249cu, 0xa3beu, 0x27dbu, 0x9a49u, 0x26f5u, 0xa062u, 0x1d55u, 0x20c3u, 0x264du, 0xa42au, 0xa956u, 0x27b7u,
  0xa112u, 0x21dfu, 0x2715u, 0x1bc3u, 0x274au, 0x2337u, 0x24b8u, 0x24ccu, 0x26d9u, 0x262fu, 0x2702u, 0xa669u, 0xa9adu, 0x242du, 0xa872u, 0x25c2u,
  0xa8fcu, 0x2838u, 0xa2f2u, 0x26e8u, 0x247fu, 0xa89cu, 0x243bu, 0x2731u, 0x2350u, 0x2630u, 0xa0e2u, 0x229cu, 0x9cf9u, 0xa71eu, 0xa7d5u, 0x201du,
  0x9755u, 0xa810u, 0xa75eu, 0x1a17u, 0xa982u, 0x25f6u, 0xa6bau, 0xa527u, 0xa69cu, 0x9e7au, 0x2524u, 0x9c98u, 0x1f35u, 0x27c1u, 0xa84au, 0x2423u,
  0x25c2u, 0x296bu, 0xa6c0u, 0x27edu, 0xa1b2u, 0xa966u, 0xa459u, 0xa890u, 0x277bu, 0x245au, 0xa298u, 0xa60bu, 0xa287u, 0xa646u, 0xa23fu, 0x2249u,
  0x22c6u, 0xa507u, 0x193cu, 0x26c5u, 0x1e8fu, 0x8dd7u, 0xa761u, 0x9e24u, 0x26adu, 0xa80fu, 0x276eu, 0xa5ccu, 0xa81cu, 0x9211u, 0x24b1u, 0x1d52u,
  0xa75du, 0xa909u, 0x25aau, 0x2834u, 0x9d54u, 0x2828u, 0x2828u, 0x2801u, 0x24dau, 0x8eb0u, 0xa53fu, 0x2451u, 0xa513u, 0xa9beu, 0x2428u, 0x1d30u,
  0xa5d8u, 0xa264u, 0x259du, 0x9f8cu, 0x2153u, 0x2796u, 0x9c27u, 0x1b67u, 0x2785u, 0xa69du, 0xa89fu, 0x9fa6u, 0x1f70u, 0x2844u, 0x240du, 0x84b9u,
  0xa97bu, 0xa4c8u, 0x9dacu, 0x25f1u, 0xa7cbu, 0xa8d6u, 0xa9cau, 0xa6dbu, 0xa752u, 0x9e9du, 0xa7dfu, 0x9a37u, 0x2632u, 0x282cu, 0x2735u, 0xa873u,
  0xa529u, 0x1ec4u, 0xa8d5u, 0xa181u, 0x2495u, 0x28a5u, 0xa68au, 0x229cu, 0xa6edu, 0x2814u, 0x2164u, 0x2053u, 0xa2ebu, 0x2833u, 0x966cu, 0xaa3au,
  0x256cu, 0xa7a9u, 0x275au, 0xa6fdu, 0x2193u, 0xa0d5u, 0xa418u, 0x216cu, 0x250au, 0x25c7u, 0xa67cu, 0xab34u, 0xa621u, 0x2836u, 0x238du, 0x1a52u,
  0xa13au, 0xa7edu, 0xa3a1u, 0x9fabu, 0x9ef1u, 0x2796u, 0x2663u, 0x21fcu, 0xa3adu, 0xa854u, 0x1ba4u, 0x2354u, 0x25b0u, 0xa464u, 0xa613u, 0x118au,
  0xa859u, 0xa8dbu, 0x89a4u, 0x2593u, 0x1838u, 0x9cbdu, 0xa526u, 0x2559u, 0x229eu, 0x1c75u, 0xa507u, 0x1687u, 0xa5c2u, 0xa813u, 0x277bu, 0xa0bau,
  0x26b4u, 0xa8c6u, 0xa7c9u, 0xa151u, 0x2604u, 0xa48bu, 0x27ffu, 0x2536u, 0xa815u, 0xa71fu, 0xa72fu, 0xa420u, 0xa4a1u, 0x27a3u, 0x257bu, 0x21ceu,
  0xa8ffu, 0xa5a6u, 0x2908u, 0x1e89u, 0x1f66u, 0xa8b2u, 0x9a67u, 0x21a1u, 0x9e0au, 0xa2e7u, 0xa0a2u, 0xa442u, 0x2357u, 0x28b5u, 0x28deu, 0xa648u,
  0x9336u, 0xa43au, 0x26aau, 0xa4dcu, 0x28b4u, 0x225cu, 0x982fu, 0xa79fu, 0x9620u, 0xa42cu, 0xa460u, 0xa576u, 0x230du, 0x0d9cu, 0xa5dfu, 0x85d5u,
  0x286bu, 0x9d7cu, 0x2096u, 0x261bu, 0x2740u, 0x2333u, 0xa8dbu, 0xa895u, 0xa556u, 0x9e70u, 0x27fcu, 0x9f2bu, 0xa90eu, 0xa40du, 0x2643u, 0xa41eu,
  0x9e06u, 0x279cu, 0x10b7u, 0x216eu, 0xaa50u, 0x23e8u, 0xa2c7u, 0x2447u, 0x2413u, 0x20e8u, 0x22b3u, 0xa8a0u, 0x1ed9u, 0x9978u, 0x8623u, 0x286bu,
  0x246bu, 0x2500u, 0x2835u, 0x9fb8u, 0x241cu, 0x2559u, 0x1eb3u, 0xa5b1u, 0x2010u, 0xa872u, 0x26dcu, 0x26beu, 0xa242u, 0xa659u, 0xa508u, 0xa3e6u,
  0x9c03u, 0x1b36u, 0x22f7u, 0x2278u, 0x286fu, 0x99a6u, 0x1a64u, 0x24d4u, 0xa4cfu, 0xa6fbu, 0x9ba9u, 0xa5d6u, 0x2416u, 0x2960u, 0x1e51u, 0x9d2du,
  0x2481u, 0xa8a2u, 0x2107u, 0x28d4u, 0x274au, 0x28c6u, 0x1f8fu, 0x1f72u, 0xa668u, 0x27fau, 0xa825u, 0xa869u, 0x1c00u, 0xa46du, 0x2511u, 0x241du,
  0xa801u, 0x27e6u, 0x2706u, 0xa5e6u, 0x288bu, 0x9ea8u, 0xa894u, 0x99d8u, 0x258eu, 0xa84bu, 0xa49cu, 0x1cefu, 0x26cau, 0xa8d8u, 0x92c0u, 0x2633u,
  0x259fu, 0x24bau, 0x2783u, 0xa8b0u, 0x8d6du, 0x1e54u, 0x275fu, 0xa549u, 0x2340u, 0xa939u, 0xa980u, 0x1a0au, 0xa46eu, 0x2654u, 0x28f4u, 0x9ebeu,
  0x2824u, 0xa8c7u, 0xa731u, 0xa657u, 0x9d43u, 0xa8ceu, 0x1c33u, 0x24fbu, 0xa7c5u, 0x2769u, 0x27b3u, 0x2847u, 0x21beu, 0x25e8u, 0x2368u, 0x27dcu,
  0x9dd7u, 0x23c4u, 0x9b8au, 0xa0b7u, 0xa64bu, 0x233eu, 0x27a0u, 0x2842u, 0xa850u, 0xa864u, 0xa875u, 0x9466u, 0xa822u, 0x1e58u, 0x9fbcu, 0xa49au,
  0xa47du, 0x2800u, 0x2094u, 0x2703u, 0xa54du, 0x2655u, 0xa613u, 0x21edu, 0x22d5u, 0x214du, 0x1b45u, 0xa2d5u, 0xa8dbu, 0x271eu, 0xa9d3u, 0xa95fu,
  0x2557u, 0xa955u, 0xa416u, 0x220cu, 0x152bu, 0x14c6u, 0x2845u, 0x28e1u, 0xa8e7u, 0x188au, 0x220bu, 0x2577u, 0x2359u, 0x216bu, 0x26feu, 0x2056u,
  0xa243u, 0x252eu, 0xa761u, 0x1815u, 0xa939u, 0xa8e3u, 0x995bu, 0xa852u, 0x240bu, 0xa511u, 0xa67cu, 0xa000u, 0x2875u, 0x8073u, 0xa916u, 0xa982u,
  0x8cbbu, 0x9c29u, 0x287cu, 0x263du, 0xa7c0u, 0x21deu, 0xa437u, 0x2252u, 0xa904u, 0xa876u, 0x2760u, 0x2491u, 0x26c7u, 0x2033u, 0xa179u, 0x143bu,
  0x9fafu, 0xa691u, 0x20c4u, 0x2904u, 0xa7e0u, 0x281du, 0x1a74u, 0xa83cu, 0x26a1u, 0xa86eu, 0xa804u, 0x256du, 0x1ca2u, 0x2339u, 0xa788u, 0x228cu,
  0xa04bu, 0xa028u, 0x19f7u, 0xa1a3u, 0x268bu, 0xa639u, 0xa340u, 0x2610u, 0xa563u, 0xa88bu, 0x2580u, 0x214du, 0xa6e1u, 0x1ea8u, 0x22ecu, 0x952bu,
  0x2874u, 0xa5c1u, 0x266eu, 0xa547u, 0x21e9u, 0x25ccu, 0x1134u, 0x234fu, 0xa5a1u, 0x2911u, 0xa822u, 0x1c44u, 0xa77bu, 0xa4fcu, 0x255bu, 0x2066u,
  0x9ff4u, 0xa82fu, 0x9e67u, 0x2847u, 0x268cu, 0x283eu, 0x2819u, 0x221eu, 0xaadfu, 0x25dau, 0x28f4u, 0xa37cu, 0xa0c0u, 0x226cu, 0x25efu, 0xa78au,
  0x9dadu, 0xa553u, 0x9d2au, 0xa2c4u, 0x24ceu, 0x29d1u, 0xa76au, 0x14d3u, 0xa9dbu, 0x26c3u, 0xa635u, 0xa7c6u, 0xa8e4u, 0x19d8u, 0x1c33u, 0x98b3u,
  0x148du, 0xa5cbu, 0x26c3u, 0xa430u, 0xa8e3u, 0x2420u, 0x273fu, 0x25e8u, 0x284bu, 0xa8c0u, 0xa0beu, 0xa63bu, 0xa53du, 0x28c6u, 0x1eaeu, 0xa88cu,
  0x0fc4u, 0xa79eu, 0x26beu, 0x9b18u, 0x24b3u, 0x9bb8u, 0xa89au, 0xa69au, 0x2365u, 0x188fu, 0x2666u, 0xa911u, 0x29a3u, 0x28b4u, 0xa2b6u, 0xa59fu,
  0xa31du, 0x251bu, 0xa8abu, 0x1ddbu, 0x2316u, 0xa77du, 0xa680u, 0x24ebu, 0xa652u, 0x9dc2u, 0x21c8u, 0xa5dau, 0xa09cu, 0x2244u, 0xa15fu, 0x1f8cu,
  0xa907u, 0x26a3u, 0xa841u, 0xa29du, 0x25c4u, 0x11f7u, 0xa8cfu, 0x2023u, 0x2872u, 0xa413u, 0xa891u, 0x1f05u, 0xa6dcu, 0x237fu, 0x25beu, 0xa41au,
  0x109eu, 0xa556u, 0x1ddbu, 0xa5fau, 0xa038u, 0xa4beu, 0xa24eu, 0x2224u, 0xa2d6u, 0x2477u, 0xa0bfu, 0x2883u, 0x283bu, 0x2861u, 0x2496u, 0x2401u,
  0x14e4u, 0x98eeu, 0x2454u, 0x2409u, 0xa6d8u, 0xa73du, 0x9a84u, 0xa842u, 0x27e4u, 0x1b9au, 0xa717u, 0xa8ceu, 0x1f6eu, 0xa54fu, 0x998bu, 0xa73fu,
  0xa778u, 0x246eu, 0xa847u, 0xa493u, 0x2880u, 0xa6dau, 0x2848u, 0x288cu, 0xa5b3u, 0x221fu, 0xa004u, 0xa521u, 0x1a39u, 0xa014u, 0xa88bu, 0x2146u,
  0xa157u, 0xa8b8u, 0x21f1u, 0x280du, 0x2867u, 0x2393u, 0x2001u, 0x1d63u, 0x2556u, 0x2889u, 0x28a7u, 0x2575u, 0xa1ebu, 0xa860u, 0x229cu, 0x2872u,
  0x281au, 0x28eau, 0xa3a9u, 0x1abau, 0x233cu, 0xa8beu, 0xa86bu, 0xa848u, 0xa852u, 0x22ecu, 0x2543u, 0xa85eu, 0xa85du, 0x9f60u, 0x2592u, 0xa559u,
  0xa8f8u, 0x9851u, 0xa60au, 0x1eceu, 0x2825u, 0x1042u, 0x25bcu, 0x28f1u, 0xa49du, 0xa800u, 0xa8efu, 0x2595u, 0xa70bu, 0x9deeu, 0xa5eau, 0xa812u,
  0xa3a1u, 0x2957u, 0x229cu, 0x2918u, 0x9da0u, 0x2001u, 0x2752u, 0x26c7u, 0x1c70u, 0xa6c3u, 0x9eb6u, 0xa3ecu, 0xa22eu, 0x2561u, 0x223fu, 0x992bu,
  0x9dcbu, 0x23dau, 0x943eu, 0x1acdu, 0x9c51u, 0x2bc4u, 0xa34au, 0xa484u, 0xabf6u, 0xa679u, 0x93e1u, 0xa870u, 0x28efu, 0x2289u, 0xa35eu, 0xa792u,
  0x2624u, 0xa618u, 0x212fu, 0x2899u, 0xa353u, 0xa1cdu, 0x1fc2u, 0x16a7u, 0x9874u, 0xa8cfu, 0x28c1u, 0x24f2u, 0x187au, 0x2691u, 0xa20bu, 0xa200u,
  0xa497u, 0xa9cau, 0x253bu, 0x26afu, 0xa640u, 0xa68cu, 0xa4acu, 0x28afu, 0xa9cdu, 0x2135u, 0xa5c4u, 0x2763u, 0xa15fu, 0x2918u, 0x1c3du, 0x1c18u,
  0x213eu, 0x25a3u, 0x9240u, 0x9f8eu, 0xa903u, 0x2879u, 0x214cu, 0x27d9u, 0xa378u, 0x2029u, 0x2134u, 0x2846u, 0x220eu, 0x206au, 0xa844u, 0x9c4fu,
  0xa90cu, 0xa805u, 0x28feu, 0xa850u, 0xa8d6u, 0x22a9u, 0xa328u, 0xa4dcu, 0x287du, 0x9e8fu, 0xa7fcu, 0xa53au, 0xa22cu, 0xa627u, 0x2563u, 0x1982u,
  0x9da1u, 0xa3f9u, 0xa6f8u, 0x289bu, 0x290bu, 0x9680u, 0x97f8u, 0xa5abu, 0xa499u, 0x2855u, 0x2572u, 0x2511u, 0xa7efu, 0x9ab4u, 0x2187u, 0x902eu,
  0x2125u, 0x1eb6u, 0x22cdu, 0x262bu, 0x251du, 0xa8bau, 0x27a1u, 0x2846u, 0x275fu, 0xa5c8u, 0xa7c0u, 0xa8f6u, 0x20a5u, 0x28ddu, 0xa4a0u, 0xa6afu,
  0x280bu, 0x22dau, 0x27d7u, 0xa906u, 0xa820u, 0xa90du, 0xa381u, 0xa6e6u, 0x14dau, 0x26d0u, 0x2827u, 0x21b5u, 0xa548u, 0xa60au, 0x248eu, 0x9ddeu,
  0x2664u, 0xa975u, 0xa929u, 0x2386u, 0x243bu, 0xa74eu, 0xa62eu, 0xa642u, 0x2846u, 0x9f79u, 0xa6dbu, 0x9c68u, 0xa91du, 0xa871u, 0x22b7u, 0x173du,
  0x20d1u, 0x9048u, 0x1ca9u, 0x2534u, 0x24eau, 0x2433u, 0x27f0u, 0x20ebu, 0xa877u, 0x2140u, 0x2402u, 0xa931u, 0x255bu, 0x2843u, 0x26c2u, 0x9c9cu,
  0xa977u, 0x2391u, 0xa87bu, 0x2578u, 0x9b56u, 0xa899u, 0x9f07u, 0x9c87u, 0x20b6u, 0x26b9u, 0x1a31u, 0xaaa2u, 0x29cau, 0xa09au, 0xa5b1u, 0xa222u,
  0x21a6u, 0xa518u, 0x2562u, 0x9d3fu, 0x12d6u, 0x284du, 0x9fb0u, 0xa5dcu, 0x2398u, 0x2010u, 0xa22bu, 0xa185u, 0x2773u, 0x2213u, 0x2846u, 0x9cd9u,
  0x2759u, 0xa89fu, 0x9dc2u, 0x2342u, 0x2573u, 0x254cu, 0xa79cu, 0x9ca7u, 0xa86bu, 0x28bfu, 0x9f17u, 0x2013u, 0x2032u, 0x27aeu, 0x2707u, 0x289eu,
  0x1e72u, 0xa8cfu, 0x28fbu, 0xa1e0u, 0xa192u, 0x1ce7u, 0xa5edu, 0xa3f3u, 0x9134u, 0xa537u, 0xa43eu, 0xa6ddu, 0x28d5u, 0xa81cu, 0xa524u, 0xa5b1u,
  0x22fcu, 0x935eu, 0xa6ddu, 0x9961u, 0x23f6u, 0xa732u, 0xa442u, 0x24e9u, 0x28f2u, 0x1decu, 0x9d90u, 0xa882u, 0x2111u, 0x27b4u, 0xa80au, 0x27e9u,
  0xa34fu, 0x275cu, 0x2676u, 0x1fdfu, 0xa7f3u, 0x9bd4u, 0xa246u, 0xa92fu, 0x98a9u, 0x28b3u, 0x2853u, 0x2820u, 0xa8eeu, 0x206cu, 0xa31bu, 0x9722u,
  0x26e9u, 0xa458u, 0x2767u, 0xa354u, 0x2842u, 0x8e9cu, 0x20ccu, 0xa086u, 0xa841u, 0x9fa1u, 0x9573u, 0xa067u, 0xa59du, 0xa894u, 0x1fb8u, 0x1e3bu,
  0x2512u, 0xa80cu, 0xa4c3u, 0x2465u, 0xa680u, 0xa5e3u, 0xa667u, 0x2883u, 0x9e46u, 0x26f5u, 0xa5cbu, 0x9931u, 0x1cf0u, 0x244au, 0x26edu, 0xa6d7u,
  0xa5c4u, 0xa834u, 0x1e7au, 0xa82eu, 0x2812u, 0x9dfbu, 0xa861u, 0x954fu, 0xa123u, 0xa8e1u, 0x28f4u, 0x2861u, 0x2541u, 0x9f14u, 0xa36bu, 0x2591u,
  0x95bdu, 0xa4adu, 0xa681u, 0xa7f1u, 0xa38au, 0xa4abu, 0xa83du, 0xa385u, 0x9fc5u, 0x244cu, 0xa8e8u, 0x1ed6u, 0x22c4u, 0x25f4u, 0x9e32u, 0xa833u,
  0xa8b1u, 0xa8d5u, 0x25b5u, 0x2755u, 0xa89cu, 0x29dfu, 0xa0a2u, 0xa898u, 0x2183u, 0x233eu, 0xa192u, 0xa923u, 0x2676u, 0xa71bu, 0xa030u, 0xa0c7u,
  0x2446u, 0x99c6u, 0x2796u, 0x2740u, 0xa830u, 0xa838u, 0x229fu, 0xa724u, 0xa86fu, 0xa21bu, 0x1d96u, 0x210cu, 0x2833u, 0x2839u, 0x9e19u, 0xa819u,
  0x1a87u, 0x189au, 0xa5dbu, 0xa481u, 0xaa07u, 0x26dcu, 0xa5f6u, 0x9b36u, 0x9e14u, 0xa823u, 0x2656u, 0xa8c9u, 0x208bu, 0x25ccu, 0x947eu, 0x1d2au,
  0xa95bu, 0xa58eu, 0x283eu, 0x9d8du, 0x1d29u, 0x9cedu, 0xa83eu, 0xa8aau, 0xa5a8u, 0xa257u, 0xa241u, 0xa629u, 0x27f2u, 0xa30eu, 0x1982u, 0x288au,
